{
  "version": "1.0",
  "truncation": null,
  "padding": null,
  "added_tokens": [
    {
      "id": 0,
      "content": "[PAD]",
      "single_word": false,
      "lstrip": false,
      "rstrip": false,
      "normalized": false,
      "special": true
    },
    {
      "id": 1,
      "content": "[UNK]",
      "single_word": false,
      "lstrip": false,
      "rstrip": false,
      "normalized": false,
      "special": true
    },
    {
      "id": 2,
      "content": "[BOS]",
      "single_word": false,
      "lstrip": false,
      "rstrip": false,
      "normalized": false,
      "special": true
    },
    {
      "id": 3,
      "content": "[EOS]",
      "single_word": false,
      "lstrip": false,
      "rstrip": false,
      "normalized": false,
      "special": true
    }
  ],
  "normalizer": null,
  "pre_tokenizer": {
    "type": "ByteLevel",
    "add_prefix_space": false,
    "trim_offsets": true,
    "use_regex": true
  },
  "post_processor": null,
  "decoder": {
    "type": "ByteLevel",
    "add_prefix_space": true,
    "trim_offsets": true,
    "use_regex": true
  },
  "model": {
    "type": "BPE",
    "dropout": null,
    "unk_token": null,
    "continuing_subword_prefix": null,
    "end_of_word_suffix": null,
    "fuse_unk": false,
    "byte_fallback": false,
    "ignore_merges": false,
    "vocab": {
      "[PAD]": 0,
      "[UNK]": 1,
      "[BOS]": 2,
      "[EOS]": 3,
      "!": 4,
      "\"": 5,
      "#": 6,
      "$": 7,
      "%": 8,
      "&": 9,
      "'": 10,
      "(": 11,
      ")": 12,
      "*": 13,
      "+": 14,
      ",": 15,
      "-": 16,
      ".": 17,
      "/": 18,
      "0": 19,
      "1": 20,
      "2": 21,
      "3": 22,
      "4": 23,
      "5": 24,
      "6": 25,
      "7": 26,
      "8": 27,
      "9": 28,
      ":": 29,
      ";": 30,
      "<": 31,
      "=": 32,
      ">": 33,
      "?": 34,
      "@": 35,
      "A": 36,
      "B": 37,
      "C": 38,
      "D": 39,
      "E": 40,
      "F": 41,
      "G": 42,
      "H": 43,
      "I": 44,
      "J": 45,
      "K": 46,
      "L": 47,
      "M": 48,
      "N": 49,
      "O": 50,
      "P": 51,
      "Q": 52,
      "R": 53,
      "S": 54,
      "T": 55,
      "U": 56,
      "V": 57,
      "W": 58,
      "X": 59,
      "Y": 60,
      "Z": 61,
      "[": 62,
      "\\": 63,
      "]": 64,
      "^": 65,
      "_": 66,
      "`": 67,
      "a": 68,
      "b": 69,
      "c": 70,
      "d": 71,
      "e": 72,
      "f": 73,
      "g": 74,
      "h": 75,
      "i": 76,
      "j": 77,
      "k": 78,
      "l": 79,
      "m": 80,
      "n": 81,
      "o": 82,
      "p": 83,
      "q": 84,
      "r": 85,
      "s": 86,
      "t": 87,
      "u": 88,
      "v": 89,
      "w": 90,
      "x": 91,
      "y": 92,
      "z": 93,
      "{": 94,
      "|": 95,
      "}": 96,
      "~": 97,
      "¡": 98,
      "¢": 99,
      "£": 100,
      "¤": 101,
      "¥": 102,
      "¦": 103,
      "§": 104,
      "¨": 105,
      "©": 106,
      "ª": 107,
      "«": 108,
      "¬": 109,
      "®": 110,
      "¯": 111,
      "°": 112,
      "±": 113,
      "²": 114,
      "³": 115,
      "´": 116,
      "µ": 117,
      "¶": 118,
      "·": 119,
      "¸": 120,
      "¹": 121,
      "º": 122,
      "»": 123,
      "¼": 124,
      "½": 125,
      "¾": 126,
      "¿": 127,
      "Â": 128,
      "Ã": 129,
      "Ä": 130,
      "Å": 131,
      "Æ": 132,
      "Ç": 133,
      "È": 134,
      "É": 135,
      "Ê": 136,
      "Ë": 137,
      "Ì": 138,
      "Î": 139,
      "Ï": 140,
      "Ð": 141,
      "Ñ": 142,
      "×": 143,
      "Ø": 144,
      "Ù": 145,
      "Û": 146,
      "à": 147,
      "á": 148,
      "â": 149,
      "ã": 150,
      "ä": 151,
      "å": 152,
      "æ": 153,
      "ç": 154,
      "è": 155,
      "é": 156,
      "ê": 157,
      "ë": 158,
      "ì": 159,
      "í": 160,
      "ï": 161,
      "ð": 162,
      "Ą": 163,
      "ĉ": 164,
      "Ċ": 165,
      "č": 166,
      "Ġ": 167,
      "Ģ": 168,
      "ģ": 169,
      "Ĥ": 170,
      "ĥ": 171,
      "Ħ": 172,
      "ħ": 173,
      "Ĩ": 174,
      "ĩ": 175,
      "Ī": 176,
      "ī": 177,
      "Ĭ": 178,
      "ĭ": 179,
      "Į": 180,
      "į": 181,
      "İ": 182,
      "ı": 183,
      "Ĳ": 184,
      "ĳ": 185,
      "Ĵ": 186,
      "ĵ": 187,
      "Ķ": 188,
      "ķ": 189,
      "ĸ": 190,
      "Ĺ": 191,
      "ĺ": 192,
      "Ļ": 193,
      "ļ": 194,
      "Ľ": 195,
      "ľ": 196,
      "Ŀ": 197,
      "ŀ": 198,
      "Ł": 199,
      "ł": 200,
      "Ń": 201,
      "ĠĠ": 202,
      "ĠĠĠĠ": 203,
      "ĠĠĠĠĠĠĠĠ": 204,
      "ĠĠĠ": 205,
      "se": 206,
      "ĊĠĠĠĠĠĠĠĠ": 207,
      "ĠĠĠĠĠĠĠ": 208,
      "re": 209,
      "in": 210,
      "on": 211,
      "at": 212,
      "ĊĠĠĠĠĠĠĠ": 213,
      "Ġ=": 214,
      "de": 215,
      "or": 216,
      "sel": 217,
      "self": 218,
      "st": 219,
      "er": 220,
      "en": 221,
      "Ġi": 222,
      "al": 223,
      "Ġt": 224,
      "ĊĠĠĠĠĠĠĠĠĠĠĠ": 225,
      "ar": 226,
      "Ġre": 227,
      "an": 228,
      "le": 229,
      "ur": 230,
      "me": 231,
      "ĊĠĠĠ": 232,
      "Ġf": 233,
      "Ġself": 234,
      "Ġc": 235,
      "):": 236,
      "ti": 237,
      "Ġn": 238,
      "ce": 239,
      "Ġif": 240,
      "Ġin": 241,
      "ge": 242,
      "Ġp": 243,
      "urn": 244,
      "turn": 245,
      "he": 246,
      "def": 247,
      "Ġa": 248,
      "it": 249,
      "ro": 250,
      "Ġreturn": 251,
      "Ġe": 252,
      "ue": 253,
      "ame": 254,
      "Ġs": 255,
      "lo": 256,
      "ut": 257,
      "Ġo": 258,
      "ct": 259,
      "ate": 260,
      "ĊĠĠĠĠĠĠĠĠĠĠĠĠĠĠĠĠ": 261,
      "()": 262,
      "pe": 263,
      "ĊĠĠĠĠĠĠĠĠĠĠĠĠĠĠĠ": 264,
      "li": 265,
      "di": 266,
      "fi": 267,
      "ra": 268,
      "._": 269,
      "un": 270,
      "ing": 271,
      "ot": 272,
      "one": 273,
      "co": 274,
      "tion": 275,
      "ss": 276,
      "ent": 277,
      "Ġfor": 278,
      "Ġ\"": 279,
      "ĊĠĠĠĠ": 280,
      "id": 281,
      "Ġm": 282,
      "ĊĠĠĠĠĠĠĠĠĊĠĠĠĠĠĠĠ": 283,
      "val": 284,
      "Ġb": 285,
      "None": 286,
      "ion": 287,
      "Ġthe": 288,
      "get": 289,
      "mp": 290,
      "la": 291,
      "te": 292,
      "Ġd": 293,
      "and": 294,
      "ata": 295,
      "ke": 296,
      "ad": 297,
      "Ġis": 298,
      "name": 299,
      "ri": 300,
      "ch": 301,
      "Ġw": 302,
      "um": 303,
      "ul": 304,
      "))": 305,
      "ype": 306,
      "ck": 307,
      "el": 308,
      "ter": 309,
      "ma": 310,
      "Ġst": 311,
      "Ġ(": 312,
      "ĊĊĠĠĠĠĠĠĠ": 313,
      "arg": 314,
      "value": 315,
      "Ġnot": 316,
      "ath": 317,
      "(\"": 318,
      "up": 319,
      "ol": 320,
      "set": 321,
      "ode": 322,
      "ĊĠĠĠĠĊĠĠĠ": 323,
      "con": 324,
      "ed": 325,
      "es": 326,
      "len": 327,
      "Ġ+": 328,
      "ĠNone": 329,
      "xt": 330,
      "Ġ_": 331,
      "th": 332,
      "ation": 333,
      "Ġ*": 334,
      "ction": 335,
      "Ġto": 336,
      "si": 337,
      "key": 338,
      "ver": 339,
      "ror": 340,
      "as": 341,
      "end": 342,
      "ap": 343,
      "to": 344,
      "ser": 345,
      "ts": 346,
      "args": 347,
      "is": 348,
      "ve": 349,
      "Ġel": 350,
      "ĊĊĠĠĠ": 351,
      "Ġ[": 352,
      "Ġelse": 353,
      "ms": 354,
      "Ġ1": 355,
      "Ġcon": 356,
      "\",": 357,
      "il": 358,
      "path": 359,
      "bj": 360,
      "ĊĠĠĠĠĠĠĠĠĠĠĠĠĠĠĠĠĠĠĠ": 361,
      "ble": 362,
      "Ġof": 363,
      "Ġg": 364,
      "Ġ-": 365,
      "Ġand": 366,
      "type": 367,
      "sp": 368,
      "list": 369,
      "ta": 370,
      "ect": 371,
      "ĊĠĠĠĠĠĠĠĠĠĠĠĠĠĠĠĠĠĠĠĠĠĠĠĠ": 372,
      "Ġ0": 373,
      "Ġex": 374,
      "ance": 375,
      "all": 376,
      "orm": 377,
      "Ġh": 378,
      "Re": 379,
      "file": 380,
      "Ġr": 381,
      "der": 382,
      "\")": 383,
      "data": 384,
      "op": 385,
      "Ġfi": 386,
      "tr": 387,
      "Ġ==": 388,
      "rror": 389,
      "par": 390,
      "Error": 391,
      "age": 392,
      "ig": 393,
      "rom": 394,
      "qu": 395,
      "stance": 396,
      "ren": 397,
      "ise": 398,
      "ze": 399,
      "lin": 400,
      "ult": 401,
      "Ġra": 402,
      "od": 403,
      "Ġde": 404,
      "ite": 405,
      "log": 406,
      "cep": 407,
      "ment": 408,
      "sh": 409,
      "po": 410,
      "Ġdi": 411,
      "ew": 412,
      "ĠT": 413,
      "ith": 414,
      "et": 415,
      "int": 416,
      "str": 417,
      "vi": 418,
      "])": 419,
      "app": 420,
      "put": 421,
      "Ġdata": 422,
      "Ġco": 423,
      "form": 424,
      "che": 425,
      "time": 426,
      "Ġraise": 427,
      "rue": 428,
      "Ġ%": 429,
      "Ġvalue": 430,
      "pro": 431,
      "ex": 432,
      "[\"": 433,
      "Ġor": 434,
      "out": 435,
      "ry": 436,
      "dex": 437,
      "alse": 438,
      "per": 439,
      "que": 440,
      "\"]": 441,
      "ds": 442,
      "False": 443,
      "ls": 444,
      "ort": 445,
      "Ġ{": 446,
      "Ġres": 447,
      "Ġme": 448,
      "Ġse": 449,
      "ub": 450,
      "),": 451,
      "ĊĠĠĠĠĠĠĠĠĠĠĠĠ": 452,
      "Ġlen": 453,
      "Ġx": 454,
      "ase": 455,
      "Ġu": 456,
      "Ġas": 457,
      "Ġnp": 458,
      "res": 459,
      "ack": 460,
      "date": 461,
      "Ġv": 462,
      "able": 463,
      "instance": 464,
      "am": 465,
      "ff": 466,
      "Ġ)": 467,
      "ist": 468,
      "art": 469,
      "ext": 470,
      "Ġname": 471,
      "Ġget": 472,
      "Ġth": 473,
      "kw": 474,
      "append": 475,
      "Ġy": 476,
      "fo": 477,
      "\":": 478,
      "ange": 479,
      "Ġpro": 480,
      "fig": 481,
      "Ġpar": 482,
      "Ġfrom": 483,
      "bject": 484,
      "ow": 485,
      "],": 486,
      "us": 487,
      "rent": 488,
      "cal": 489,
      "Ġstr": 490,
      "kwargs": 491,
      "Ġan": 492,
      "our": 493,
      "text": 494,
      "eld": 495,
      "add": 496,
      "Ġwith": 497,
      "Ġexcep": 498,
      "format": 499,
      "Ġisinstance": 500,
      "code": 501,
      "atch": 502,
      "bu": 503,
      "Ġkey": 504,
      "Ġfile": 505,
      "tri": 506,
      "ci": 507,
      "ĊĠĠĠĠĠĠĠĠĠĠĠĠĠĠĠĠĠĠĠĠĠĠĠĠĠĠĠĠĠĠĠĠ": 508,
      "size": 509,
      "ĊĠĠĠĠĠ": 510,
      "pre": 511,
      "In": 512,
      "quest": 513,
      "Ġ**": 514,
      "line": 515,
      "lif": 516,
      "ces": 517,
      "Ġlist": 518,
      "Ġdef": 519,
      "ure": 520,
      "Ġch": 521,
      "ord": 522,
      "Ġtry": 523,
      "ind": 524,
      "ctor": 525,
      "Return": 526,
      "Ġexcept": 527,
      "col": 528,
      "mo": 529,
      "ger": 530,
      "Ġma": 531,
      "pa": 532,
      "ape": 533,
      "Ġelif": 534,
      "ime": 535,
      "mple": 536,
      "ĠS": 537,
      "ph": 538,
      "Ġ2": 539,
      "Ġout": 540,
      "lass": 541,
      "ray": 542,
      "():": 543,
      "ams": 544,
      "Ġnew": 545,
      "mb": 546,
      "Ġ>": 547,
      "Ġlog": 548,
      "red": 549,
      ".__": 550,
      "sion": 551,
      "Ġpa": 552,
      "oc": 553,
      "odel": 554,
      "unt": 555,
      "jo": 556,
      "ssage": 557,
      "lu": 558,
      "index": 559,
      "ĠC": 560,
      "cess": 561,
      "ile": 562,
      "Ġset": 563,
      "om": 564,
      "ly": 565,
      "dir": 566,
      "ĊĠĠĠĠĠĠĠĠĠĠĠĠĠĠĠĠĠĠĠĠĠĠĠ": 567,
      "ĊĠ": 568,
      "read": 569,
      "Ġen": 570,
      "Ġ<": 571,
      "Ġop": 572,
      "vent": 573,
      "ute": 574,
      "ht": 575,
      "reate": 576,
      "attr": 577,
      "den": 578,
      "Ġlo": 579,
      "sc": 580,
      "ĠTrue": 581,
      "ild": 582,
      "Val": 583,
      "ers": 584,
      "ssion": 585,
      "url": 586,
      "array": 587,
      "error": 588,
      "ator": 589,
      "ource": 590,
      "Ġbe": 591,
      "dict": 592,
      "ali": 593,
      "\".": 594,
      "ader": 595,
      "node": 596,
      "Ġ[]": 597,
      "iv": 598,
      "Ċĉ": 599,
      "ans": 600,
      "mm": 601,
      "Ġcol": 602,
      "und": 603,
      "Ġro": 604,
      "ĊĠĠĠĠĠĠĠĠĠĠĠĠĊĠĠĠĠĠĠĠĠĠĠĠ": 605,
      "roup": 606,
      ").": 607,
      "00": 608,
      "bo": 609,
      "__": 610,
      "Ġ/": 611,
      "Ġresult": 612,
      "Ġpo": 613,
      "Ġl": 614,
      "ĠA": 615,
      "ĠP": 616,
      "Ġk": 617,
      "Ġtime": 618,
      "ĠFalse": 619,
      "ule": 620,
      "lay": 621,
      "tions": 622,
      "shape": 623,
      "min": 624,
      "info": 625,
      "Ġ+=": 626,
      "valid": 627,
      "ted": 628,
      "low": 629,
      "rip": 630,
      "True": 631,
      "ep": 632,
      "dd": 633,
      "ic": 634,
      "ault": 635,
      "ne": 636,
      "Value": 637,
      "Ġ{}": 638,
      "lock": 639,
      "onse": 640,
      "ac": 641,
      "ip": 642,
      "cur": 643,
      "obj": 644,
      "unc": 645,
      "Ġos": 646,
      "Con": 647,
      "ty": 648,
      "ari": 649,
      "Ex": 650,
      "thod": 651,
      "fe": 652,
      "Ġpath": 653,
      "unction": 654,
      "update": 655,
      "ery": 656,
      "num": 657,
      "lab": 658,
      "ken": 659,
      "Ġcur": 660,
      "fa": 661,
      "ĊĊĠĠĠĠĠĠĠĠĊĠĠĠĠĠĠĠ": 662,
      "by": 663,
      "iven": 664,
      "ag": 665,
      "im": 666,
      "arget": 667,
      "Ġtype": 668,
      "Ġpre": 669,
      "Ġnode": 670,
      "max": 671,
      "ary": 672,
      "py": 673,
      "lient": 674,
      "sponse": 675,
      "umn": 676,
      "lit": 677,
      "state": 678,
      "Ġall": 679,
      "())": 680,
      "string": 681,
      "Ġwh": 682,
      "map": 683,
      "ER": 684,
      "config": 685,
      "Ġon": 686,
      "class": 687,
      "rite": 688,
      "lename": 689,
      "gth": 690,
      "ity": 691,
      "mage": 692,
      "Ġcont": 693,
      "ork": 694,
      "Ġby": 695,
      "Ġun": 696,
      "].": 697,
      "label": 698,
      "load": 699,
      "query": 700,
      "sed": 701,
      "start": 702,
      "Ġnum": 703,
      "Ġhe": 704,
      "=\"": 705,
      "rint": 706,
      "ask": 707,
      "ho": 708,
      "back": 709,
      "pi": 710,
      "Ġ`": 711,
      "ign": 712,
      "params": 713,
      "mat": 714,
      "ĠD": 715,
      "sen": 716,
      "version": 717,
      "from": 718,
      "ĊĠĠĠĠĠĠĠĠĊĠĠĠĠĠĠĠĠĊĠĠĠĠĠĠĠ": 719,
      "os": 720,
      "ec": 721,
      "Ġat": 722,
      "ĊĊĠĠĠĠĠĠĠĠĠĠĠ": 723,
      "Ġint": 724,
      "trib": 725,
      "[:": 726,
      "cation": 727,
      "Ġgiven": 728,
      "ab": 729,
      "ener": 730,
      "čĊĠĠĠĠĠĠĠ": 731,
      "join": 732,
      "Ġite": 733,
      "son": 734,
      "vice": 735,
      "lement": 736,
      "Ġj": 737,
      "Ġ!": 738,
      "da": 739,
      "ValueError": 740,
      "Ġrange": 741,
      "ON": 742,
      "sor": 743,
      "Ġ!=": 744,
      "IN": 745,
      "Ġobject": 746,
      "Ġal": 747,
      "np": 748,
      "sert": 749,
      "Ġmax": 750,
      "ample": 751,
      "iter": 752,
      "items": 753,
      "gra": 754,
      "count": 755,
      "ann": 756,
      "ĠĠĠĠĠĠĠĠĠĠĠĠĠĠĠĠ": 757,
      "base": 758,
      "ception": 759,
      "ber": 760,
      "ĠValueError": 761,
      "values": 762,
      "Ġhas": 763,
      "ore": 764,
      "ree": 765,
      "atus": 766,
      "ca": 767,
      "ress": 768,
      "ok": 769,
      "ument": 770,
      "([": 771,
      "ĊĠĠĠĠĠĠĠĠĠĠĠĠĠĠĠĠĠĠĠĠ": 772,
      "ĠM": 773,
      "ĊĊĠĠĠĠĊĠĠĠ": 774,
      "ĠI": 775,
      "heck": 776,
      "ĊĠĠĠĠĠĠĠĠĊĊĠĠĠĠĠĠĠ": 777,
      "Get": 778,
      "loat": 779,
      "for": 780,
      "rame": 781,
      "fil": 782,
      "Ġsi": 783,
      "RE": 784,
      "comp": 785,
      "yn": 786,
      "ield": 787,
      "**": 788,
      "ings": 789,
      "Ġthis": 790,
      "move": 791,
      "((": 792,
      "ler": 793,
      "fix": 794,
      "bug": 795,
      "Ġsh": 796,
      "AT": 797,
      "Ġindex": 798,
      "if": 799,
      "ump": 800,
      "ys": 801,
      "tern": 802,
      "Returns": 803,
      "group": 804,
      "odule": 805,
      "late": 806,
      "vel": 807,
      "mport": 808,
      "user": 809,
      "sub": 810,
      "ust": 811,
      "xis": 812,
      "ard": 813,
      "ĠL": 814,
      "Ġsub": 815,
      "Ġrequest": 816,
      "port": 817,
      "Ġstart": 818,
      "ream": 819,
      "ded": 820,
      "zer": 821,
      "sum": 822,
      "request": 823,
      "Ġthat": 824,
      "uple": 825,
      "model": 826,
      "pp": 827,
      "arch": 828,
      "row": 829,
      "ĠN": 830,
      "ir": 831,
      "Ġargs": 832,
      "we": 833,
      "wa": 834,
      "hand": 835,
      "ameter": 836,
      "own": 837,
      "Ġadd": 838,
      "object": 839,
      "gn": 840,
      "split": 841,
      "its": 842,
      "mmand": 843,
      "Ġline": 844,
      "Ċĉĉ": 845,
      "emp": 846,
      "Ġconfig": 847,
      "gs": 848,
      "uth": 849,
      "Ġuser": 850,
      "cont": 851,
      "ket": 852,
      "call": 853,
      "write": 854,
      "peci": 855,
      "lat": 856,
      "Ġoutput": 857,
      "ses": 858,
      "Ġitem": 859,
      "Ġprint": 860,
      "ĠR": 861,
      "rap": 862,
      "arn": 863,
      "ST": 864,
      "cls": 865,
      "ory": 866,
      "idth": 867,
      "pos": 868,
      "new": 869,
      "Ġac": 870,
      "][": 871,
      "Ġ:": 872,
      "rea": 873,
      "uct": 874,
      "inter": 875,
      "Ġfunction": 876,
      "Ġtr": 877,
      "clu": 878,
      "tive": 879,
      "().": 880,
      "message": 881,
      "gin": 882,
      "Ġle": 883,
      "debug": 884,
      "reg": 885,
      "ults": 886,
      "with": 887,
      "ound": 888,
      "keys": 889,
      "item": 890,
      "Ġcurrent": 891,
      "ave": 892,
      "Exception": 893,
      "ight": 894,
      "last": 895,
      "ctions": 896,
      "types": 897,
      "lace": 898,
      "Ġmessage": 899,
      "ated": 900,
      "func": 901,
      "work": 902,
      "tes": 903,
      "ĠB": 904,
      "Ġobj": 905,
      "tain": 906,
      "igh": 907,
      "ctory": 908,
      "ĠF": 909,
      "lic": 910,
      "input": 911,
      "Ġbase": 912,
      "Ġdict": 913,
      "Ġid": 914,
      "Type": 915,
      "Ġz": 916,
      "Ġmethod": 917,
      "(),": 918,
      "Ġmin": 919,
      "bs": 920,
      "De": 921,
      "Ġcomp": 922,
      "qui": 923,
      "run": 924,
      "Ġ\\": 925,
      "ations": 926,
      "cs": 927,
      "names": 928,
      "Ġmodel": 929,
      "mi": 930,
      "Ġ->": 931,
      "St": 932,
      "scrip": 933,
      "Se": 934,
      "Ġcls": 935,
      "Ġend": 936,
      "sition": 937,
      "ĠO": 938,
      "ref": 939,
      "lib": 940,
      "check": 941,
      "Ġevent": 942,
      "quen": 943,
      "ll": 944,
      "ints": 945,
      "ft": 946,
      "length": 947,
      "ive": 948,
      "cor": 949,
      "Co": 950,
      "ull": 951,
      "filter": 952,
      "ĊĠĠĠĠĊĠĠĠĠĊĠĠĠ": 953,
      "word": 954,
      "md": 955,
      "ml": 956,
      "Ġ3": 957,
      "Ġstate": 958,
      "ariable": 959,
      "Ġassert": 960,
      "Ġyield": 961,
      "tribute": 962,
      "Ġresponse": 963,
      "ĠG": 964,
      "Ġstring": 965,
      "ang": 966,
      "Ġlogger": 967,
      "spa": 968,
      "Ġtf": 969,
      "filename": 970,
      "elds": 971,
      "be": 972,
      "ten": 973,
      "token": 974,
      "Ġinput": 975,
      "ĠU": 976,
      "ature": 977,
      "ant": 978,
      "df": 979,
      "off": 980,
      "Set": 981,
      "ĊĠĠĠĠĠĠĠĠĠĠĠĠĠĠĠĠĠĠĠĠĠĠĠĠĠĠĠ": 982,
      "cord": 983,
      "Ġbu": 984,
      "sk": 985,
      "Ġdefault": 986,
      "čĊĠĠĠĠĠĠĠĠĠĠĠ": 987,
      "place": 988,
      "event": 989,
      "]:": 990,
      "mit": 991,
      "tra": 992,
      "Ġerror": 993,
      "denti": 994,
      "Ġimport": 995,
      "ĊĠĠĠĠĊĊĠĠĠ": 996,
      "idx": 997,
      "table": 998,
      "Ġpass": 999,
      "amp": 1000,
      "nection": 1001,
      "rst": 1002,
      "LE": 1003,
      "output": 1004,
      "ject": 1005,
      "link": 1006,
      "Ġrow": 1007,
      "Ġarg": 1008,
      "annel": 1009,
      "Ġbo": 1010,
      "temp": 1011,
      "pect": 1012,
      "(*": 1013,
      "adata": 1014,
      "Ke": 1015,
      "og": 1016,
      "Ġtext": 1017,
      "field": 1018,
      "has": 1019,
      "rc": 1020,
      "Ġfil": 1021,
      "lob": 1022,
      "Name": 1023,
      "Ġinstance": 1024,
      "Ġvalues": 1025,
      "Ġext": 1026,
      "point": 1027,
      "ates": 1028,
      "Ġtarget": 1029,
      "Ġwhile": 1030,
      "client": 1031,
      "var": 1032,
      "DE": 1033,
      "result": 1034,
      "OR": 1035,
      "rix": 1036,
      "process": 1037,
      "default": 1038,
      "fied": 1039,
      "ents": 1040,
      "parse": 1041,
      "ĊĠĠ": 1042,
      "view": 1043,
      "Ġfield": 1044,
      "no": 1045,
      "raw": 1046,
      "Par": 1047,
      "Ġspeci": 1048,
      "unk": 1049,
      "{}": 1050,
      "vert": 1051,
      "ĊĠĠĠĠĠĠĠĠĠĠĠĠĠĠĠĠĠĠĠĠĠĠĠĠĠĠĠĠ": 1052,
      "En": 1053,
      "header": 1054,
      "ĊĠĠĠĠĠĠĠĠĠĠĠĠĠĠĠĠĊĠĠĠĠĠĠĠĠĠĠĠĠĠĠĠ": 1055,
      "ast": 1056,
      "column": 1057,
      "lines": 1058,
      "iti": 1059,
      "ther": 1060,
      "target": 1061,
      "ids": 1062,
      "Pro": 1063,
      "trans": 1064,
      ")))": 1065,
      "pr": 1066,
      "sy": 1067,
      "block": 1068,
      "Ġcall": 1069,
      "nect": 1070,
      "sing": 1071,
      "ulti": 1072,
      "tadata": 1073,
      "em": 1074,
      "lete": 1075,
      "lose": 1076,
      "json": 1077,
      "status": 1078,
      "ments": 1079,
      "space": 1080,
      "Create": 1081,
      "Ġdate": 1082,
      "\"):": 1083,
      "Ġcheck": 1084,
      "Key": 1085,
      "ps": 1086,
      "context": 1087,
      "ID": 1088,
      "ine": 1089,
      "Ġquery": 1090,
      "Ġser": 1091,
      "not": 1092,
      "Ġval": 1093,
      "create": 1094,
      ")]": 1095,
      "entry": 1096,
      "ĊĠĠĠĠĠĠĠĠĠ": 1097,
      "orted": 1098,
      "andom": 1099,
      "cache": 1100,
      "ties": 1101,
      "ĊĠĠĠĠĠĠĠĠĊĠĠĠĠĠĠĠĠ": 1102,
      "ght": 1103,
      ".\")": 1104,
      "range": 1105,
      "ME": 1106,
      "ĊĠĠĠĠĠĠĠĠĠĠĠĠĠĠĠĠĠĠĠĠĠĠĠĠĠĠĠĠĠĠĠĠĠĠĠĠĠĠĠĠ": 1107,
      "sg": 1108,
      "ding": 1109,
      "main": 1110,
      "feren": 1111,
      "response": 1112,
      "match": 1113,
      "action": 1114,
      "Ġvalid": 1115,
      "ron": 1116,
      "image": 1117,
      "lamb": 1118,
      "Ġparams": 1119,
      "Ġurl": 1120,
      "child": 1121,
      "Ġwe": 1122,
      "Ġsize": 1123,
      "gr": 1124,
      "ĠX": 1125,
      "utes": 1126,
      "Ġit": 1127,
      "inue": 1128,
      "try": 1129,
      ")):": 1130,
      "Ġreg": 1131,
      "cle": 1132,
      "lambda": 1133,
      "av": 1134,
      "sco": 1135,
      "rectory": 1136,
      "ors": 1137,
      "of": 1138,
      "Ġcreate": 1139,
      "Ġsup": 1140,
      "session": 1141,
      "cale": 1142,
      "Ġq": 1143,
      "Data": 1144,
      "Ġret": 1145,
      "copy": 1146,
      "api": 1147,
      "Ġmatch": 1148,
      "files": 1149,
      "ster": 1150,
      "Ġdo": 1151,
      "msg": 1152,
      "alize": 1153,
      "source": 1154,
      "queue": 1155,
      "otal": 1156,
      "reak": 1157,
      "umpy": 1158,
      "Ġcontinue": 1159,
      "Ġcolumn": 1160,
      "Ġinter": 1161,
      "Ġne": 1162,
      "do": 1163,
      "ists": 1164,
      "Ġopen": 1165,
      "return": 1166,
      "Ġmat": 1167,
      "module": 1168,
      "cre": 1169,
      "Ġapp": 1170,
      "Ġsp": 1171,
      "select": 1172,
      "method": 1173,
      "parent": 1174,
      "AR": 1175,
      "AL": 1176,
      "Ġtemp": 1177,
      "Ġread": 1178,
      "Ġhand": 1179,
      "ld": 1180,
      "Ġtrans": 1181,
      "pec": 1182,
      "Ġtoken": 1183,
      "Ġrun": 1184,
      "ffer": 1185,
      "Ġper": 1186,
      "doc": 1187,
      "err": 1188,
      "[-": 1189,
      "layer": 1190,
      "ĠH": 1191,
      "--": 1192,
      "su": 1193,
      "ords": 1194,
      "SE": 1195,
      "attern": 1196,
      "ging": 1197,
      "ĠE": 1198,
      "Ġiter": 1199,
      "lot": 1200,
      "ain": 1201,
      "ension": 1202,
      "width": 1203,
      "ches": 1204,
      "..": 1205,
      "mode": 1206,
      "sample": 1207,
      "Ġfilename": 1208,
      "Ġfloat": 1209,
      "Ġdel": 1210,
      "Ġimage": 1211,
      "lable": 1212,
      "old": 1213,
      "sign": 1214,
      "aliz": 1215,
      "ched": 1216,
      "current": 1217,
      "ies": 1218,
      "Ġelement": 1219,
      "loc": 1220,
      "wait": 1221,
      "Ġheader": 1222,
      "Ġformat": 1223,
      "Ġkwargs": 1224,
      "indow": 1225,
      "Ġcontext": 1226,
      "dim": 1227,
      "Ġgroup": 1228,
      "ameters": 1229,
      "ract": 1230,
      "ody": 1231,
      "Ġinto": 1232,
      "frame": 1233,
      "ark": 1234,
      "tag": 1235,
      "Ġtuple": 1236,
      "cy": 1237,
      "Ġlabel": 1238,
      "chema": 1239,
      "ync": 1240,
      "clude": 1241,
      "led": 1242,
      "ĊĠĠĠĠĠĠĠĠĠĠĠĠĠĠĠĠĠĠĠĠĠĠĠĠĠĠĠĠĠĠĠĠĠĠĠĠĠĠĠĠĠĠĠĠĠĠĠĠ": 1243,
      "nd": 1244,
      "Ġ):": 1245,
      "als": 1246,
      "Ġchild": 1247,
      "use": 1248,
      "find": 1249,
      "offset": 1250,
      "Ġ<=": 1251,
      "ĠType": 1252,
      "Ġmsg": 1253,
      "Ġ>=": 1254,
      "ĠException": 1255,
      "uti": 1256,
      "Ġaxis": 1257,
      "cul": 1258,
      "root": 1259,
      "Ġcan": 1260,
      "db": 1261,
      "enti": 1262,
      "float": 1263,
      "To": 1264,
      "tings": 1265,
      "dep": 1266,
      "quence": 1267,
      "job": 1268,
      "PE": 1269,
      "pack": 1270,
      "uration": 1271,
      "stream": 1272,
      "man": 1273,
      "Ġca": 1274,
      "ked": 1275,
      "Ġtra": 1276,
      "io": 1277,
      "Ġmo": 1278,
      "ference": 1279,
      "Ġtag": 1280,
      "order": 1281,
      "[:,": 1282,
      "rect": 1283,
      "stamp": 1284,
      "number": 1285,
      "ĠQ": 1286,
      "inal": 1287,
      "Ġsource": 1288,
      "Ġenum": 1289,
      "Ġclient": 1290,
      "task": 1291,
      "Ġbreak": 1292,
      "Ġdoc": 1293,
      "right": 1294,
      "Ġtable": 1295,
      "Ġoff": 1296,
      "remove": 1297,
      "ries": 1298,
      "command": 1299,
      "limit": 1300,
      "ures": 1301,
      "Ġfa": 1302,
      "pri": 1303,
      "content": 1304,
      "pop": 1305,
      "Un": 1306,
      "Ġver": 1307,
      "ote": 1308,
      "``": 1309,
      "List": 1310,
      "(_": 1311,
      "Ġfunc": 1312,
      "level": 1313,
      "fn": 1314,
      "ome": 1315,
      "xy": 1316,
      "ĊĠĠĊĠ": 1317,
      "Ġupdate": 1318,
      "step": 1319,
      "Ġparent": 1320,
      "element": 1321,
      "Ġblock": 1322,
      "ats": 1323,
      "Ġnext": 1324,
      "10": 1325,
      "graph": 1326,
      "Ġother": 1327,
      "handle": 1328,
      "raph": 1329,
      "dices": 1330,
      "ped": 1331,
      "Ġclass": 1332,
      "function": 1333,
      "File": 1334,
      "Ġfilter": 1335,
      "Ġcommand": 1336,
      "Ġno": 1337,
      "mt": 1338,
      "axis": 1339,
      "exp": 1340,
      "bin": 1341,
      "rt": 1342,
      "Ġcal": 1343,
      "est": 1344,
      "oth": 1345,
      "Res": 1346,
      "Ġ4": 1347,
      "options": 1348,
      "Ġversion": 1349,
      "Ġsu": 1350,
      "Ġdtype": 1351,
      "Ġ``": 1352,
      "norm": 1353,
      "host": 1354,
      "Ġnumber": 1355,
      "idget": 1356,
      "ĊĠĠĠĠĊĠĠĠĠ": 1357,
      "ĠTypeError": 1358,
      "erate": 1359,
      "send": 1360,
      "EN": 1361,
      "Ġpi": 1362,
      "Ġho": 1363,
      "fields": 1364,
      "stem": 1365,
      "auth": 1366,
      "cket": 1367,
      "Add": 1368,
      "bytes": 1369,
      "Ġcontain": 1370,
      "Ġlength": 1371,
      "star": 1372,
      "Lo": 1373,
      "ĠV": 1374,
      "\"],": 1375,
      "ister": 1376,
      "FI": 1377,
      "top": 1378,
      "32": 1379,
      "close": 1380,
      "ay": 1381,
      "etwork": 1382,
      "Ġtimeout": 1383,
      "ager": 1384,
      "\"])": 1385,
      "Ġsys": 1386,
      "Ġjson": 1387,
      "Ġed": 1388,
      "TI": 1389,
      "exec": 1390,
      "uri": 1391,
      "Di": 1392,
      "resh": 1393,
      "ĠIn": 1394,
      "Ġup": 1395,
      "address": 1396,
      "lower": 1397,
      "ols": 1398,
      "tp": 1399,
      "Me": 1400,
      "cent": 1401,
      "Check": 1402,
      "Ġsy": 1403,
      "Ġ&": 1404,
      "Ġsign": 1405,
      "warn": 1406,
      "opy": 1407,
      "ĠW": 1408,
      "connect": 1409,
      "Ġsession": 1410,
      "fier": 1411,
      "Ġenumerate": 1412,
      "Ġmust": 1413,
      "nodes": 1414,
      "Ġone": 1415,
      "Id": 1416,
      "ran": 1417,
      "AN": 1418,
      "encode": 1419,
      "gment": 1420,
      "scription": 1421,
      "so": 1422,
      "Ġmode": 1423,
      "lugin": 1424,
      "Ġnumpy": 1425,
      "Ġpy": 1426,
      "Ġare": 1427,
      "les": 1428,
      "Ġcode": 1429,
      "prefix": 1430,
      "cat": 1431,
      "Ġarray": 1432,
      "Ġtask": 1433,
      "ong": 1434,
      "Ġar": 1435,
      "Ġfe": 1436,
      "face": 1437,
      "store": 1438,
      "Ġ\".": 1439,
      "Ġhasattr": 1440,
      "color": 1441,
      "Ġspecified": 1442,
      "lection": 1443,
      "mask": 1444,
      "Ġ.": 1445,
      "Ġattr": 1446,
      "lp": 1447,
      "Th": 1448,
      "sq": 1449,
      "Ġad": 1450,
      "ill": 1451,
      "64": 1452,
      "gen": 1453,
      "hash": 1454,
      "dent": 1455,
      "points": 1456,
      "Ġ[\"": 1457,
      "Ġdep": 1458,
      "variable": 1459,
      "cate": 1460,
      "Ġ}": 1461,
      "dtype": 1462,
      "ual": 1463,
      "param": 1464,
      "tree": 1465,
      "Ġcontent": 1466,
      "uld": 1467,
      "Ġfiles": 1468,
      "Ġcount": 1469,
      "Ġover": 1470,
      "Ġoffset": 1471,
      "Ġlast": 1472,
      "fication": 1473,
      "TE": 1474,
      "vector": 1475,
      "channel": 1476,
      "Ch": 1477,
      "ner": 1478,
      "enerate": 1479,
      "ize": 1480,
      "Ġuse": 1481,
      "Comp": 1482,
      "tiv": 1483,
      "edge": 1484,
      "dist": 1485,
      "timeout": 1486,
      "ous": 1487,
      "Ġmodule": 1488,
      "local": 1489,
      "iz": 1490,
      "]))": 1491,
      "abs": 1492,
      "erge": 1493,
      "strip": 1494,
      "act": 1495,
      "Ġsample": 1496,
      "page": 1497,
      "ach": 1498,
      "thon": 1499,
      "wrap": 1500,
      "Ġresults": 1501,
      "tional": 1502,
      "LO": 1503,
      "AC": 1504,
      "struct": 1505,
      "ĊĠĠĠĠĠĠĠĠĠĠĠĠĠĠĠĠĠĠĠĠĠĠĠĠĠĠĠĠĠĠĠĠĠĠĠĠ": 1506,
      "ocket": 1507,
      "ally": 1508,
      "Ġfound": 1509,
      "del": 1510,
      "ont": 1511,
      "Ġparse": 1512,
      "itor": 1513,
      "replace": 1514,
      "zeros": 1515,
      "ights": 1516,
      "pha": 1517,
      "here": 1518,
      "tributes": 1519,
      "olu": 1520,
      "SI": 1521,
      "next": 1522,
      "sent": 1523,
      "tx": 1524,
      "matrix": 1525,
      "metadata": 1526,
      "older": 1527,
      "Ġ__": 1528,
      "Ġfirst": 1529,
      "Ġprocess": 1530,
      "Ġ|": 1531,
      "ryp": 1532,
      "open": 1533,
      "Ġsum": 1534,
      "callback": 1535,
      "logger": 1536,
      "PI": 1537,
      "ternal": 1538,
      "rol": 1539,
      "]]": 1540,
      "ns": 1541,
      "Po": 1542,
      "buffer": 1543,
      "CO": 1544,
      "uni": 1545,
      "req": 1546,
      "ĊĠĠĠĠĠĠĠĠĠĠĠĠĊĠĠĠĠĠĠĠĠĠĠĠĠĊĠĠĠĠĠĠĠĠĠĠĠ": 1547,
      "Ġusing": 1548,
      "are": 1549,
      "Ġwork": 1550,
      ".\"": 1551,
      "coun": 1552,
      "ved": 1553,
      "Ġstream": 1554,
      "Ġstatus": 1555,
      "exists": 1556,
      "las": 1557,
      "ources": 1558,
      "'s": 1559,
      "search": 1560,
      "Ġsc": 1561,
      "core": 1562,
      "Ġidx": 1563,
      "coding": 1564,
      "FF": 1565,
      ":]": 1566,
      "comm": 1567,
      "uments": 1568,
      "Ġhparams": 1569,
      "ĊĠĠĠĠĠĠĠĠĠĠĠĠĠĠĠĠĠĠĠĠĠĠĠĠĠĠĠĠĠĠĠ": 1570,
      "Ġcopy": 1571,
      "verse": 1572,
      "perties": 1573,
      "iled": 1574,
      "Ġoptions": 1575,
      "ĠRe": 1576,
      "}\".": 1577,
      "Ġsorted": 1578,
      "Ġsuper": 1579,
      "ĊĊĠĠĠĠĠĠĠĠĠĠĠĠĠĠĠ": 1580,
      "Ġroot": 1581,
      "Col": 1582,
      "Ġold": 1583,
      "handler": 1584,
      "iss": 1585,
      "Ġuni": 1586,
      "seq": 1587,
      "pol": 1588,
      "Ġbool": 1589,
      "ake": 1590,
      "box": 1591,
      "lags": 1592,
      "batch": 1593,
      "const": 1594,
      "stop": 1595,
      "lobal": 1596,
      "starts": 1597,
      "Ġany": 1598,
      "std": 1599,
      "čĊĠĠĠĠĠĠĠĠ": 1600,
      "Ġlocal": 1601,
      "The": 1602,
      "mail": 1603,
      "vals": 1604,
      "onent": 1605,
      "atures": 1606,
      "ĊĊĠĠĠĠĠĠĠĠĠĠĠĠĊĠĠĠĠĠĠĠĠĠĠĠ": 1607,
      "Ġlogging": 1608,
      "Ġdatetime": 1609,
      "yload": 1610,
      "char": 1611,
      "RO": 1612,
      "GE": 1613,
      "Ġwrap": 1614,
      "template": 1615,
      "tuple": 1616,
      "ttribute": 1617,
      "print": 1618,
      "connection": 1619,
      "Ġcolor": 1620,
      "server": 1621,
      "uid": 1622,
      "like": 1623,
      "Ġitems": 1624,
      "init": 1625,
      "stack": 1626,
      "decode": 1627,
      "delete": 1628,
      "Ġcor": 1629,
      "Ar": 1630,
      "mote": 1631,
      "ctionary": 1632,
      "com": 1633,
      "ping": 1634,
      "ax": 1635,
      "Ġpri": 1636,
      "Ġqu": 1637,
      "Ġgetattr": 1638,
      "du": 1639,
      "Ġnorm": 1640,
      "gram": 1641,
      "lice": 1642,
      "Ġdist": 1643,
      "datetime": 1644,
      "ĠĠĊĠĠĠĠĠĠĠ": 1645,
      "perty": 1646,
      "ĠKey": 1647,
      "Ser": 1648,
      "Ġload": 1649,
      "pected": 1650,
      "Ġfind": 1651,
      "Ġ]": 1652,
      "Ġuti": 1653,
      "left": 1654,
      "cmd": 1655,
      "Up": 1656,
      "ai": 1657,
      "Cal": 1658,
      "ĊĊĠ": 1659,
      "TY": 1660,
      "script": 1661,
      "flow": 1662,
      "change": 1663,
      "viron": 1664,
      "Ġ{\"": 1665,
      "ical": 1666,
      "ative": 1667,
      "mean": 1668,
      "Ġref": 1669,
      "Ġentry": 1670,
      "parti": 1671,
      "ear": 1672,
      "Ġaction": 1673,
      "čĊĠĠĠ": 1674,
      ":`": 1675,
      "rid": 1676,
      "tran": 1677,
      "spec": 1678,
      "Ġback": 1679,
      "env": 1680,
      "ting": 1681,
      "ich": 1682,
      "Ġ{}\".": 1683,
      "make": 1684,
      "project": 1685,
      "Ġvar": 1686,
      "extend": 1687,
      ")[": 1688,
      "mary": 1689,
      "Ġdf": 1690,
      "Ġmap": 1691,
      "Ġcache": 1692,
      "UL": 1693,
      "lease": 1694,
      "annot": 1695,
      "columns": 1696,
      "lan": 1697,
      "Ġvariable": 1698,
      "lation": 1699,
      "Ġoper": 1700,
      "fer": 1701,
      "mission": 1702,
      "Ġpage": 1703,
      "enerator": 1704,
      "Ġtotal": 1705,
      "Ġrequi": 1706,
      "Ġcallback": 1707,
      "Ġauth": 1708,
      "Ġ(\"": 1709,
      "conds": 1710,
      "startswith": 1711,
      "Str": 1712,
      "Ġhost": 1713,
      "Ġsen": 1714,
      "\"))": 1715,
      "rs": 1716,
      "cryp": 1717,
      "fore": 1718,
      "section": 1719,
      "down": 1720,
      "ob": 1721,
      "Ġchunk": 1722,
      "build": 1723,
      "location": 1724,
      "ify": 1725,
      "position": 1726,
      "pression": 1727,
      "fter": 1728,
      "seri": 1729,
      "pass": 1730,
      "Ġshape": 1731,
      "Ġdest": 1732,
      "random": 1733,
      "au": 1734,
      "SS": 1735,
      "Ġass": 1736,
      "Ġstep": 1737,
      "day": 1738,
      "Ġframe": 1739,
      "tit": 1740,
      "ccess": 1741,
      "12": 1742,
      "Ġresource": 1743,
      "vis": 1744,
      "UT": 1745,
      "(**": 1746,
      "aly": 1747,
      "meta": 1748,
      "ĠJ": 1749,
      "gest": 1750,
      "MA": 1751,
      "Ġkeys": 1752,
      "dis": 1753,
      "UR": 1754,
      "parser": 1755,
      "lag": 1756,
      "can": 1757,
      "ends": 1758,
      "resource": 1759,
      "Ġonly": 1760,
      "Ġorder": 1761,
      "AD": 1762,
      "headers": 1763,
      "Ġbin": 1764,
      "Ċĉĉĉ": 1765,
      "etch": 1766,
      "Ġorig": 1767,
      "čĊĠĠĠĠĠĠĠĠčĊĠĠĠĠĠĠĠ": 1768,
      "diff": 1769,
      "objects": 1770,
      "indices": 1771,
      "ern": 1772,
      "grid": 1773,
      "Ġzip": 1774,
      "fy": 1775,
      "Hand": 1776,
      "bit": 1777,
      "other": 1778,
      "ING": 1779,
      "coder": 1780,
      "gor": 1781,
      "Ġax": 1782,
      "ass": 1783,
      "service": 1784,
      "cl": 1785,
      "oi": 1786,
      "identi": 1787,
      "čĊ": 1788,
      "vari": 1789,
      "yle": 1790,
      "imum": 1791,
      "delta": 1792,
      "Ġexp": 1793,
      "Ġcmd": 1794,
      "Ġawait": 1795,
      "alog": 1796,
      "Ġexist": 1797,
      "Ġparti": 1798,
      "Ġerr": 1799,
      "alized": 1800,
      "ultip": 1801,
      "post": 1802,
      "tf": 1803,
      "Ġdirectory": 1804,
      "Read": 1805,
      "test": 1806,
      "record": 1807,
      "Ġpos": 1808,
      "Ġmetadata": 1809,
      "Ġrecord": 1810,
      "cond": 1811,
      "labels": 1812,
      "round": 1813,
      "body": 1814,
      "dot": 1815,
      "ini": 1816,
      "lasses": 1817,
      "xml": 1818,
      "=[": 1819,
      "Ġtemplate": 1820,
      "Ġinfo": 1821,
      "ell": 1822,
      "height": 1823,
      "pattern": 1824,
      "mon": 1825,
      "ĊĠĠĠĠĠĠĠĠĠĠĠĠĠĠĠĠĠĠĠĠĠ": 1826,
      "Ġstop": 1827,
      "Ġbytes": 1828,
      "mod": 1829,
      "Ġservice": 1830,
      "Ġserver": 1831,
      "ĊĠĠĠĠĠĠĠĠĊĠĠĠĠĠĠĠĠĊĠĠĠĠĠĠĠĠĊĠĠĠĠĠĠĠ": 1832,
      "Ġnames": 1833,
      "orig": 1834,
      "mplement": 1835,
      "Not": 1836,
      "Ġrandom": 1837,
      "ustom": 1838,
      "čĊĠĠĠĠĠĠĠĠĠĠĠĠĠĠĠ": 1839,
      "Ġremove": 1840,
      "Ġfin": 1841,
      "peri": 1842,
      "the": 1843,
      "bose": 1844,
      "unds": 1845,
      "Ġeach": 1846,
      "tem": 1847,
      "sis": 1848,
      "ĊĠĠĠĠĠĠĠĠĠĠĠĠĠ": 1849,
      "Ġreturns": 1850,
      "ingle": 1851,
      "Ġraw": 1852,
      "ants": 1853,
      "Time": 1854,
      "*(": 1855,
      "termin": 1856,
      "Ġinst": 1857,
      "first": 1858,
      "over": 1859,
      "CON": 1860,
      "culate": 1861,
      "Ġwidth": 1862,
      "000": 1863,
      "ek": 1864,
      "Ġwhich": 1865,
      "ton": 1866,
      "Ġcomm": 1867,
      "mbol": 1868,
      "Ġconnection": 1869,
      "Ġwrite": 1870,
      "Ġprefix": 1871,
      "Ġport": 1872,
      "fs": 1873,
      "Ġedge": 1874,
      "lip": 1875,
      "Ġtop": 1876,
      "save": 1877,
      "exception": 1878,
      "src": 1879,
      "Ġparser": 1880,
      "active": 1881,
      "sig": 1882,
      "Ġheaders": 1883,
      "thread": 1884,
      "Op": 1885,
      "ĠCon": 1886,
      "25": 1887,
      "ward": 1888,
      "formation": 1889,
      "oper": 1890,
      "Ġmake": 1891,
      "cp": 1892,
      "ection": 1893,
      "Ġdb": 1894,
      "Ġattribute": 1895,
      "ĊĠĠĠĠĠĠ": 1896,
      "wer": 1897,
      "Ġph": 1898,
      "async": 1899,
      "directory": 1900,
      "rop": 1901,
      "go": 1902,
      "chunk": 1903,
      "sort": 1904,
      "Ġ5": 1905,
      "ĠKeyError": 1906,
      "Ġdiff": 1907,
      "Ġ@": 1908,
      "Ġlevel": 1909,
      "teger": 1910,
      "\"),": 1911,
      "ou": 1912,
      "Ġctypes": 1913,
      "ves": 1914,
      "mber": 1915,
      "UN": 1916,
      "settings": 1917,
      "trie": 1918,
      "Ġpack": 1919,
      "Ġprovi": 1920,
      ")),": 1921,
      "pub": 1922,
      "Ġbatch": 1923,
      "tail": 1924,
      "Ġdataset": 1925,
      "Ġtree": 1926,
      "Ġgraph": 1927,
      "children": 1928,
      "ined": 1929,
      "Ġchannel": 1930,
      "Ġmask": 1931,
      "Ġchar": 1932,
      "nown": 1933,
      "This": 1934,
      "parameters": 1935,
      "Ġexec": 1936,
      "Ġdictionary": 1937,
      "olve": 1938,
      "orts": 1939,
      "Ġhash": 1940,
      "Ġpoint": 1941,
      "timestamp": 1942,
      "tric": 1943,
      "layers": 1944,
      "Update": 1945,
      "CH": 1946,
      "enden": 1947,
      "Ġselect": 1948,
      "gex": 1949,
      "full": 1950,
      "Path": 1951,
      "now": 1952,
      "mark": 1953,
      "results": 1954,
      "Ġfields": 1955,
      "lean": 1956,
      "ning": 1957,
      "ites": 1958,
      "orage": 1959,
      "title": 1960,
      "Ġwhen": 1961,
      "ailable": 1962,
      "Ġlines": 1963,
      "Ġproject": 1964,
      "Ġhandler": 1965,
      "Ġlib": 1966,
      "LA": 1967,
      "didate": 1968,
      "Ġjob": 1969,
      "xel": 1970,
      "No": 1971,
      "dump": 1972,
      "Ġlambda": 1973,
      "istr": 1974,
      "Ġstd": 1975,
      "Convert": 1976,
      "initi": 1977,
      "Node": 1978,
      "Ġdim": 1979,
      "plot": 1980,
      "schema": 1981,
      "scale": 1982,
      "window": 1983,
      "AME": 1984,
      "derr": 1985,
      "rate": 1986,
      "Ġ\"%": 1987,
      "okup": 1988,
      "ATE": 1989,
      "option": 1990,
      "Ġposition": 1991,
      "TR": 1992,
      "rows": 1993,
      "ose": 1994,
      "cer": 1995,
      "riter": 1996,
      "part": 1997,
      "ude": 1998,
      "Ġthread": 1999,
      "Ġnodes": 2000,
      "FA": 2001,
      "wo": 2002,
      "lication": 2003,
      "cf": 2004,
      "splay": 2005,
      "utils": 2006,
      "ating": 2007,
      "lim": 2008,
      "Ġsingle": 2009,
      "ready": 2010,
      "Ġav": 2011,
      "Ġaddress": 2012,
      "contain": 2013,
      "total": 2014,
      "addr": 2015,
      "CE": 2016,
      "Object": 2017,
      "uto": 2018,
      "mory": 2019,
      "Index": 2020,
      "dition": 2021,
      "60": 2022,
      "TYPE": 2023,
      "lect": 2024,
      "comple": 2025,
      "Ġused": 2026,
      "Per": 2027,
      "ssi": 2028,
      "paths": 2029,
      "Ġfull": 2030,
      "ĊĠĠĠĠĠĠĠĠĠĠĠĠĠĠĠĠĠĠ": 2031,
      "Ġparameters": 2032,
      "Sh": 2033,
      "rection": 2034,
      "Ġchange": 2035,
      "system": 2036,
      "DI": 2037,
      "sup": 2038,
      "ride": 2039,
      "Ġ8": 2040,
      "]):": 2041,
      "ĠĠĊĠĠĠĠĠĠĠĠĠĠĠ": 2042,
      "Ġman": 2043,
      "Ġstruct": 2044,
      "Ġiniti": 2045,
      "pk": 2046,
      "Event": 2047,
      "LI": 2048,
      "Ġmatrix": 2049,
      "ĊĠĠĠĠĠĠĠĠĠĠĠĠĠĠĠĠĠĠĠĠĠĠĠĠĠ": 2050,
      "ttributeError": 2051,
      "Ġpattern": 2052,
      "Frame": 2053,
      "package": 2054,
      "depth": 2055,
      "ensor": 2056,
      "Ġag": 2057,
      "Ġtmp": 2058,
      "radi": 2059,
      "Ġsig": 2060,
      "samples": 2061,
      "ĊĠĠĠĠĠĠĠĠĠĠĠĠĠĠĠĠĠĠĠĠĠĠ": 2062,
      "MP": 2063,
      "empty": 2064,
      "manager": 2065,
      "zero": 2066,
      "Text": 2067,
      "bits": 2068,
      "dered": 2069,
      "Ġgen": 2070,
      "State": 2071,
      "rans": 2072,
      "Ġconst": 2073,
      "Ġim": 2074,
      "Ġbut": 2075,
      "Ġhave": 2076,
      "Ad": 2077,
      "loop": 2078,
      "cies": 2079,
      "present": 2080,
      "corator": 2081,
      "Ġdelta": 2082,
      "Ġallow": 2083,
      "ĠOp": 2084,
      "ets": 2085,
      "device": 2086,
      "Ġbody": 2087,
      "==": 2088,
      "An": 2089,
      "Ġsrc": 2090,
      "hist": 2091,
      "lon": 2092,
      "arr": 2093,
      "fin": 2094,
      "Ġabs": 2095,
      "ML": 2096,
      "itle": 2097,
      "groups": 2098,
      "Fa": 2099,
      "rep": 2100,
      "ĊĠĠĠĠĠĠĠĠĠĠĠĠĠĠĠĠĠĠĠĠĊĠĠĠĠĠĠĠĠĠĠĠĠĠĠĠĠĠĠĠ": 2101,
      "dims": 2102,
      "gress": 2103,
      "Ġerrors": 2104,
      "ins": 2105,
      "bi": 2106,
      "Ġfn": 2107,
      "Ġter": 2108,
      "TP": 2109,
      "pair": 2110,
      "ween": 2111,
      "ait": 2112,
      "ling": 2113,
      "Ġsplit": 2114,
      "factor": 2115,
      "vec": 2116,
      "Request": 2117,
      "Ġdevice": 2118,
      "Dict": 2119,
      "\"\"": 2120,
      "vices": 2121,
      "Ġparam": 2122,
      "chain": 2123,
      "Valid": 2124,
      "\"].": 2125,
      "})": 2126,
      "lem": 2127,
      "inst": 2128,
      "ctx": 2129,
      "ordin": 2130,
      "Ġ\"/": 2131,
      "Ġvi": 2132,
      "Ġctx": 2133,
      "Ġ-=": 2134,
      "TER": 2135,
      "Ġexc": 2136,
      "Run": 2137,
      "Bu": 2138,
      "Ġright": 2139,
      "afe": 2140,
      "Ġobjects": 2141,
      "Ġits": 2142,
      "Ġso": 2143,
      "zip": 2144,
      "lt": 2145,
      "Ġapi": 2146,
      "abled": 2147,
      "rec": 2148,
      "Ġsearch": 2149,
      "cast": 2150,
      "ud": 2151,
      "ĠY": 2152,
      "stat": 2153,
      "16": 2154,
      "uture": 2155,
      "Ġidenti": 2156,
      "sqrt": 2157,
      "By": 2158,
      "EL": 2159,
      "Ġsco": 2160,
      "etween": 2161,
      "Ġlat": 2162,
      "warning": 2163,
      "]),": 2164,
      "score": 2165,
      "ĊĠĠĠĠĠĠĠĠĠĠĠĠĠĠĠĠĠĠĠĠĠĠĠĠĠĠ": 2166,
      "ĠAttributeError": 2167,
      "Ġpackage": 2168,
      "ULT": 2169,
      "KE": 2170,
      "Ġ10": 2171,
      "hould": 2172,
      "String": 2173,
      "PO": 2174,
      "Ġqueue": 2175,
      "cursor": 2176,
      "duct": 2177,
      "rule": 2178,
      "zone": 2179,
      "execute": 2180,
      "Ġwill": 2181,
      "Item": 2182,
      "keep": 2183,
      "Ġword": 2184,
      "tocol": 2185,
      "Ġ\"\"": 2186,
      "ank": 2187,
      "dataset": 2188,
      "dest": 2189,
      "Ġform": 2190,
      "Ġview": 2191,
      "util": 2192,
      "apping": 2193,
      "Ġtest": 2194,
      "tmp": 2195,
      "Ġ'": 2196,
      "hed": 2197,
      "ak": 2198,
      "cept": 2199,
      "Ġparameter": 2200,
      "my": 2201,
      "train": 2202,
      "(-": 2203,
      "App": 2204,
      "Ġextra": 2205,
      "requi": 2206,
      "Ġlimit": 2207,
      "`.": 2208,
      "conf": 2209,
      "ernel": 2210,
      "arning": 2211,
      "scope": 2212,
      "Config": 2213,
      "Ġutils": 2214,
      "validate": 2215,
      "tity": 2216,
      "licy": 2217,
      "sure": 2218,
      "enu": 2219,
      "fic": 2220,
      "exit": 2221,
      "ility": 2222,
      "Ġsettings": 2223,
      "network": 2224,
      "Reg": 2225,
      "Ġsequence": 2226,
      "Ġlink": 2227,
      "vious": 2228,
      "[:-": 2229,
      "unit": 2230,
      "actions": 2231,
      "ĠĠĊĠĠĠ": 2232,
      "Ġrep": 2233,
      "Ġnon": 2234,
      "Ġdt": 2235,
      "exc": 2236,
      "\"]:": 2237,
      "eff": 2238,
      "Ġ((": 2239,
      "sequence": 2240,
      "(\"\\": 2241,
      "Ġign": 2242,
      "Ġsix": 2243,
      "angle": 2244,
      "Ġcursor": 2245,
      "gh": 2246,
      "properties": 2247,
      "only": 2248,
      "=(": 2249,
      "ffix": 2250,
      "reshape": 2251,
      "Ġshould": 2252,
      "_,": 2253,
      "non": 2254,
      "Ġtri": 2255,
      "Ġ\",": 2256,
      "Ġleft": 2257,
      "()):": 2258,
      "ending": 2259,
      "ick": 2260,
      "Parse": 2261,
      "sin": 2262,
      "Ġforce": 2263,
      "ift": 2264,
      "cords": 2265,
      "stats": 2266,
      "ĊĠĠĠĠĠĠĠĠĠĠĠĠĠĠ": 2267,
      "fast": 2268,
      "reshold": 2269,
      "onents": 2270,
      "Ġ_,": 2271,
      "stru": 2272,
      "ĊĊĠĠĠĠĠĠĠĠĊĠĠĠĠĠĠĠĠĊĠĠĠĠĠĠĠ": 2273,
      "Ġhelp": 2274,
      "angu": 2275,
      "qual": 2276,
      "anguage": 2277,
      "flu": 2278,
      "Ġalpha": 2279,
      "Ġbuild": 2280,
      "alias": 2281,
      "words": 2282,
      "Ġoption": 2283,
      "\"][\"": 2284,
      "ĊĠĠĠĠĠĠĠĠĠĠĠĠĠĠĠĠĠĠĠĠĠĠĠĠĠĠĠĠĠĠ": 2285,
      "Ġcolumns": 2286,
      "sv": 2287,
      "entries": 2288,
      "lap": 2289,
      "inputs": 2290,
      "ĠUn": 2291,
      "vars": 2292,
      "Ġdatabase": 2293,
      "Ġpair": 2294,
      "transform": 2295,
      "Ġ\"\\": 2296,
      "ypes": 2297,
      "head": 2298,
      "Ġsave": 2299,
      "errors": 2300,
      "Ġlayer": 2301,
      "upper": 2302,
      "bar": 2303,
      "Ġdoes": 2304,
      "ĠK": 2305,
      "ĊĠĠĠĠĠĠĠĠĠĠĠĠĠĠĠĠĠĠĠĠĠĠĠĠĠĠĠĠĠĠĠĠĠĠĠĠĠĠĠĠĠĠĠĠ": 2306,
      "Form": 2307,
      "NAME": 2308,
      "Ġpost": 2309,
      "Ġlabels": 2310,
      "FAULT": 2311,
      "register": 2312,
      "bound": 2313,
      "lick": 2314,
      "Ġdelete": 2315,
      "region": 2316,
      "Ġschema": 2317,
      "ĊĠĠĠĠĠĠĠĠĠĠĠĠĠĠĠĠĠĠĠĠĠĠĠĠĠĠĠĠĠĠĠĠĠĠĠ": 2318,
      "linen": 2319,
      "Ġtran": 2320,
      "Ġinclude": 2321,
      "Ġcomple": 2322,
      "ĊĠĠĠĠĠĠĠĠĠĠĠĠĠĠĠĠĠ": 2323,
      "Ġlocation": 2324,
      "ination": 2325,
      "ĠPy": 2326,
      "Ġab": 2327,
      "Ver": 2328,
      "alle": 2329,
      "counts": 2330,
      "clo": 2331,
      "idden": 2332,
      "tags": 2333,
      "ported": 2334,
      "Ġtitle": 2335,
      "Ġscale": 2336,
      "access": 2337,
      "ensions": 2338,
      "password": 2339,
      "Ġtwo": 2340,
      "net": 2341,
      "Ġhandle": 2342,
      "At": 2343,
      "TH": 2344,
      "Load": 2345,
      "Ġbased": 2346,
      "variables": 2347,
      "gine": 2348,
      "ighb": 2349,
      "tification": 2350,
      "Creates": 2351,
      "ĊĠĠĠĠĠĠĠĠĠĠĠĠĠĠĠĠĠĠĠĠĠĠĠĠĠĠĠĠĠ": 2352,
      "ret": 2353,
      "ĠRun": 2354,
      "Ġdir": 2355,
      "Ġpassword": 2356,
      "description": 2357,
      "expr": 2358,
      "weights": 2359,
      "55": 2360,
      "Ġcent": 2361,
      "CT": 2362,
      "features": 2363,
      "Invalid": 2364,
      "olume": 2365,
      "Ġsk": 2366,
      "Ġseri": 2367,
      "Ġopts": 2368,
      "Ġheight": 2369,
      "(\"%": 2370,
      "Ġht": 2371,
      "Log": 2372,
      "Ġpoints": 2373,
      "plugin": 2374,
      "Ġsort": 2375,
      "namespace": 2376,
      "adding": 2377,
      "Ġwrapper": 2378,
      "ui": 2379,
      "gments": 2380,
      "classes": 2381,
      "gory": 2382,
      "cell": 2383,
      "interval": 2384,
      "Ġmon": 2385,
      "feature": 2386,
      "tokens": 2387,
      "Ġwindow": 2388,
      "alizer": 2389,
      "seconds": 2390,
      "Ġcoun": 2391,
      "book": 2392,
      "Qu": 2393,
      "convert": 2394,
      "20": 2395,
      "attributes": 2396,
      "Le": 2397,
      "lper": 2398,
      "sets": 2399,
      "Ġvari": 2400,
      "SON": 2401,
      "medi": 2402,
      "year": 2403,
      "username": 2404,
      "//": 2405,
      "NO": 2406,
      "Ġsend": 2407,
      "Ġtimestamp": 2408,
      "leep": 2409,
      "itude": 2410,
      "til": 2411,
      "lineno": 2412,
      "stdout": 2413,
      "ATI": 2414,
      "For": 2415,
      "clear": 2416,
      "insert": 2417,
      "byte": 2418,
      "Ġresp": 2419,
      "Ġglobal": 2420,
      "ix": 2421,
      "Ġbyte": 2422,
      "istry": 2423,
      "raise": 2424,
      "mag": 2425,
      "Ġpol": 2426,
      "gy": 2427,
      "wd": 2428,
      "attribute": 2429,
      "Iter": 2430,
      "Ġtypes": 2431,
      "Num": 2432,
      "Ġstat": 2433,
      "ef": 2434,
      "Ġdistance": 2435,
      "dev": 2436,
      "wh": 2437,
      "cos": 2438,
      "99": 2439,
      "Call": 2440,
      "mpty": 2441,
      "Ġregion": 2442,
      "Info": 2443,
      "distance": 2444,
      "Ġbetween": 2445,
      "dt": 2446,
      "side": 2447,
      "cols": 2448,
      "pt": 2449,
      "Pre": 2450,
      "Ġenv": 2451,
      "Ġplugin": 2452,
      "proxy": 2453,
      "tach": 2454,
      "Process": 2455,
      "pc": 2456,
      "style": 2457,
      "ĠĊĠĠĠĠĠĠĠ": 2458,
      "valu": 2459,
      "vo": 2460,
      "issing": 2461,
      "speci": 2462,
      "()[": 2463,
      "attrs": 2464,
      "ql": 2465,
      "tensor": 2466,
      "vironment": 2467,
      "ponse": 2468,
      "Sets": 2469,
      "tools": 2470,
      "fra": 2471,
      "na": 2472,
      "Ġrule": 2473,
      "ĠData": 2474,
      "weight": 2475,
      "Ġrows": 2476,
      "shot": 2477,
      "layout": 2478,
      "Ġast": 2479,
      "ript": 2480,
      "cursi": 2481,
      "bed": 2482,
      "mapping": 2483,
      "ribu": 2484,
      "ĊĠĠĠĠĠĠĠĠĠĠĠĠĊĠĠĠĠĠĠĠĠĠĠĠĠ": 2485,
      "tex": 2486,
      "Cont": 2487,
      "oice": 2488,
      "Ġreplace": 2489,
      "med": 2490,
      "direct": 2491,
      "Ġmeta": 2492,
      "Ġfeature": 2493,
      "fd": 2494,
      "oci": 2495,
      "Ġencoding": 2496,
      "domain": 2497,
      "ilder": 2498,
      "fit": 2499,
      "term": 2500,
      "Ġpayload": 2501,
      "()))": 2502,
      "ics": 2503,
      "Ġvalidate": 2504,
      "Ġnetwork": 2505,
      "Size": 2506,
      "Model": 2507,
      "sys": 2508,
      "Ġseq": 2509,
      "olution": 2510,
      "pu": 2511,
      "Ġcontainer": 2512,
      "Client": 2513,
      "rg": 2514,
      "alk": 2515,
      ".,": 2516,
      "Ġconvert": 2517,
      "resp": 2518,
      "hex": 2519,
      "inition": 2520,
      "roll": 2521,
      "hook": 2522,
      "Ġarguments": 2523,
      "ĠRuntime": 2524,
      "Field": 2525,
      "ranch": 2526,
      "ati": 2527,
      "widget": 2528,
      "Ġpd": 2529,
      "ĠList": 2530,
      "conn": 2531,
      "Message": 2532,
      "tom": 2533,
      "coords": 2534,
      "dic": 2535,
      "Ġreq": 2536,
      "ĠTh": 2537,
      "verage": 2538,
      "Ġmerge": 2539,
      "vate": 2540,
      "Ġpk": 2541,
      "http": 2542,
      "selection": 2543,
      "Ġap": 2544,
      "OG": 2545,
      "trics": 2546,
      "Ġdocument": 2547,
      "({": 2548,
      "ters": 2549,
      "Ġconfiguration": 2550,
      "pid": 2551,
      "itch": 2552,
      "board": 2553,
      "AB": 2554,
      "ĊĠĠĠĠĊĠĠĠĠĊĠĠĠĠĊĠĠĠ": 2555,
      "Gets": 2556,
      "transp": 2557,
      "ba": 2558,
      "rit": 2559,
      "Ġsection": 2560,
      "Ġmean": 2561,
      "Ġgo": 2562,
      "Ġstack": 2563,
      "reference": 2564,
      "alpha": 2565,
      "utf": 2566,
      "aults": 2567,
      "Trans": 2568,
      "edges": 2569,
      "nan": 2570,
      "Ġrepresent": 2571,
      "Ġafter": 2572,
      "Ġvector": 2573,
      "Input": 2574,
      "ĊĉĉĊĉ": 2575,
      "RI": 2576,
      "rm": 2577,
      "oriz": 2578,
      "cap": 2579,
      "gorith": 2580,
      "US": 2581,
      "Ġ//": 2582,
      "imp": 2583,
      "ily": 2584,
      "ective": 2585,
      "MO": 2586,
      "Ac": 2587,
      "esc": 2588,
      "scal": 2589,
      "Ġrequired": 2590,
      "Remove": 2591,
      "nap": 2592,
      "Ġdown": 2593,
      "11": 2594,
      "cut": 2595,
      "Ġmod": 2596,
      "Ġcre": 2597,
      "Ġdecorator": 2598,
      "bot": 2599,
      "cked": 2600,
      "where": 2601,
      "control": 2602,
      "lative": 2603,
      "Ġwarn": 2604,
      "alt": 2605,
      "Ġbest": 2606,
      "endswith": 2607,
      "extra": 2608,
      "nt": 2609,
      "TO": 2610,
      "payload": 2611,
      "poch": 2612,
      "ultiple": 2613,
      "Ġpart": 2614,
      "__,": 2615,
      "latten": 2616,
      "Ġweights": 2617,
      "atio": 2618,
      "Inter": 2619,
      "Ġreference": 2620,
      "KEY": 2621,
      "vers": 2622,
      "TION": 2623,
      "Ġindices": 2624,
      "mplemented": 2625,
      "ason": 2626,
      "Ġ6": 2627,
      "requen": 2628,
      "Ġnamespace": 2629,
      "Ġ\"-": 2630,
      "html": 2631,
      "IO": 2632,
      "ie": 2633,
      "socket": 2634,
      "()]": 2635,
      ")/": 2636,
      "Ext": 2637,
      "merge": 2638,
      "ĠSt": 2639,
      "Ġelements": 2640,
      "Mo": 2641,
      "folder": 2642,
      "trace": 2643,
      ")*": 2644,
      "ared": 2645,
      "bl": 2646,
      "Ġpub": 2647,
      "unique": 2648,
      "rou": 2649,
      "multi": 2650,
      "Ġ\"--": 2651,
      "Ġalready": 2652,
      "lers": 2653,
      "Ġconnect": 2654,
      "ĠPro": 2655,
      "Bo": 2656,
      "container": 2657,
      "Ġflags": 2658,
      "Ġattributes": 2659,
      "fetch": 2660,
      "Ġignore": 2661,
      "cret": 2662,
      "TTP": 2663,
      "aml": 2664,
      "ink": 2665,
      "dirs": 2666,
      "img": 2667,
      "models": 2668,
      "ered": 2669,
      "Ġavailable": 2670,
      "ence": 2671,
      "Ġtokens": 2672,
      "ĠID": 2673,
      "Ġ\"{": 2674,
      "Ġexception": 2675,
      "0000": 2676,
      "trieve": 2677,
      "scri": 2678,
      "ĊĠĠĠĠĠĠĠĠĠĠĠĠĠĠĠĠĠĠĠĠĠĠĠĠĠĠĠĠĠĠĠĠĠ": 2679,
      "Ġdepth": 2680,
      "ored": 2681,
      "Ġexists": 2682,
      "pare": 2683,
      "serv": 2684,
      "states": 2685,
      "alysis": 2686,
      "Ġmath": 2687,
      "pace": 2688,
      "Ġfinally": 2689,
      "slice": 2690,
      "From": 2691,
      "Ġdescription": 2692,
      "pb": 2693,
      "Py": 2694,
      "buf": 2695,
      "Ġmatches": 2696,
      "show": 2697,
      "EX": 2698,
      "ng": 2699,
      "opts": 2700,
      "50": 2701,
      "IT": 2702,
      "sitions": 2703,
      "ators": 2704,
      "Class": 2705,
      "Ġexisting": 2706,
      "Out": 2707,
      "identifier": 2708,
      "amma": 2709,
      "reen": 2710,
      "Ġinformation": 2711,
      "ular": 2712,
      "ĠRuntimeError": 2713,
      "activ": 2714,
      "gate": 2715,
      "Ġrequests": 2716,
      "events": 2717,
      "ĊĠĠĠĠĠĠĠĠĠĠĠĠĠĠĠĠĠĠĠĠĠĠĠĠĠĠĠĠĠĠĠĠĠĠ": 2718,
      "dirname": 2719,
      "br": 2720,
      "align": 2721,
      "Ġplot": 2722,
      "Ġloop": 2723,
      "DEFAULT": 2724,
      "'t": 2725,
      "parts": 2726,
      "account": 2727,
      "collection": 2728,
      "SH": 2729,
      "Ġremote": 2730,
      "24": 2731,
      "Element": 2732,
      "cho": 2733,
      "times": 2734,
      "Ġwhe": 2735,
      "gorithm": 2736,
      "Ġsocket": 2737,
      "\").": 2738,
      "ATION": 2739,
      "GER": 2740,
      "Ġwait": 2741,
      "very": 2742,
      "tention": 2743,
      "email": 2744,
      "Array": 2745,
      "Found": 2746,
      "bind": 2747,
      "ĊĊĠĠĠĠĊĠĠĠĠĊĠĠĠ": 2748,
      "urse": 2749,
      "ĠSe": 2750,
      "Def": 2751,
      "dr": 2752,
      "Ġverbose": 2753,
      "ash": 2754,
      "ERR": 2755,
      "Ġoperation": 2756,
      "Map": 2757,
      "nn": 2758,
      "Ġcom": 2759,
      "Compute": 2760,
      "known": 2761,
      "Ġprev": 2762,
      "Ġprovided": 2763,
      "any": 2764,
      "Ġcell": 2765,
      "Ġclose": 2766,
      "Ġgrid": 2767,
      "rel": 2768,
      "Ġob": 2769,
      "Handler": 2770,
      "let": 2771,
      "Ġconn": 2772,
      "tz": 2773,
      "Ġpad": 2774,
      "cc": 2775,
      "numpy": 2776,
      "Ġexpected": 2777,
      "Ġtrain": 2778,
      "Ġregister": 2779,
      "80": 2780,
      "case": 2781,
      "steps": 2782,
      "spe": 2783,
      "document": 2784,
      "ware": 2785,
      "Parser": 2786,
      "Ġtransform": 2787,
      "ribution": 2788,
      "]*": 2789,
      "tim": 2790,
      "Ġwas": 2791,
      "ĊĠĠĠĠĠĠĠĠĠĠĠĠĠĠĠĠĊĠĠĠĠĠĠĠĠĠĠĠĠĠĠĠĠĊĠĠĠĠĠĠĠĠĠĠĠĠĠĠĠ": 2792,
      "ĠLOG": 2793,
      "ision": 2794,
      "{}\".": 2795,
      "just": 2796,
      "ene": 2797,
      "tered": 2798,
      "profile": 2799,
      "remote": 2800,
      "Ġparsed": 2801,
      "ordinates": 2802,
      "endencies": 2803,
      "sw": 2804,
      "she": 2805,
      "stderr": 2806,
      "Ġaccount": 2807,
      "sorted": 2808,
      "clean": 2809,
      "Ġinit": 2810,
      "ground": 2811,
      "mbed": 2812,
      "utton": 2813,
      "__(": 2814,
      "opt": 2815,
      "01": 2816,
      "ED": 2817,
      "Find": 2818,
      "river": 2819,
      "mand": 2820,
      "Ġusername": 2821,
      "apply": 2822,
      "phi": 2823,
      "posit": 2824,
      "Ġnow": 2825,
      "Ġwidget": 2826,
      "Ġimg": 2827,
      "pl": 2828,
      "Dis": 2829,
      "Ġren": 2830,
      "Ġcl": 2831,
      "ithub": 2832,
      "__)": 2833,
      "Ġsame": 2834,
      "import": 2835,
      "Ġcommon": 2836,
      "logging": 2837,
      "timi": 2838,
      "channels": 2839,
      "chedule": 2840,
      "QU": 2841,
      ".\",": 2842,
      "af": 2843,
      "loads": 2844,
      "fname": 2845,
      "Cur": 2846,
      "ĠNot": 2847,
      "Vi": 2848,
      "tile": 2849,
      "Ġmark": 2850,
      "allow": 2851,
      "tails": 2852,
      "Com": 2853,
      "sible": 2854,
      "redu": 2855,
      "ife": 2856,
      "Ġshow": 2857,
      "commit": 2858,
      "SC": 2859,
      "concat": 2860,
      "Start": 2861,
      "pad": 2862,
      "git": 2863,
      "real": 2864,
      "ness": 2865,
      "txt": 2866,
      "duce": 2867,
      "period": 2868,
      "Ġge": 2869,
      "verts": 2870,
      "Ġmapping": 2871,
      "sim": 2872,
      "Ġvis": 2873,
      "Ġiss": 2874,
      "Ġunique": 2875,
      "sleep": 2876,
      "reset": 2877,
      "Ġsim": 2878,
      "Ġclu": 2879,
      "Ġencode": 2880,
      "fill": 2881,
      "AM": 2882,
      "ĠThe": 2883,
      "signal": 2884,
      "Ġprevious": 2885,
      "rict": 2886,
      "ution": 2887,
      "factory": 2888,
      "Ġgra": 2889,
      "Fil": 2890,
      "Ġargument": 2891,
      "ĊĠĠĠĠĠĠĊĠĠĠĠĠ": 2892,
      "On": 2893,
      "ocab": 2894,
      "Ġhist": 2895,
      "Ġunit": 2896,
      "Ġwhether": 2897,
      "stim": 2898,
      "Format": 2899,
      "Ġmain": 2900,
      "pository": 2901,
      "Ġpaths": 2902,
      "expand": 2903,
      "spect": 2904,
      "olver": 2905,
      "Ġskip": 2906,
      "sec": 2907,
      "Ġbot": 2908,
      "Ġsignal": 2909,
      "bool": 2910,
      "tk": 2911,
      "prob": 2912,
      "Ġsamples": 2913,
      "Ġbound": 2914,
      "ĠQt": 2915,
      "VAL": 2916,
      "blocks": 2917,
      "Ġcustom": 2918,
      "ssible": 2919,
      "Write": 2920,
      "Ġprop": 2921,
      "Ġinputs": 2922,
      "Ġwhere": 2923,
      "flags": 2924,
      "gle": 2925,
      "ones": 2926,
      "Ġbuffer": 2927,
      "Adds": 2928,
      "modi": 2929,
      "elements": 2930,
      "},": 2931,
      "Exec": 2932,
      "draw": 2933,
      "repo": 2934,
      "report": 2935,
      "Ġip": 2936,
      "alg": 2937,
      "Ġparts": 2938,
      "iterable": 2939,
      "://": 2940,
      "pool": 2941,
      "Ġaccess": 2942,
      "Ġclean": 2943,
      "ĠDi": 2944,
      "lated": 2945,
      "Ġkeep": 2946,
      "ĠAPI": 2947,
      "Session": 2948,
      "Ġdis": 2949,
      "argument": 2950,
      "ĊĠĠĠĠĠĠĠĠĊĊĠĠĠĠĠĠĠĠĊĠĠĠĠĠĠĠ": 2951,
      "inv": 2952,
      "sist": 2953,
      "mut": 2954,
      "rary": 2955,
      "Ġpe": 2956,
      "Ġ<<": 2957,
      "He": 2958,
      "RL": 2959,
      "ĠAn": 2960,
      "forms": 2961,
      "ĊĠĠĠĠĠĠĠĠĠĠĠĠĠĠĠĠĠĠĠĠĠĠĠĠĠĠĠĠĠĠĠĠĠĠĠĠĠĠĠĠĠĠĠĠĠĠĠĠĠĠĠĠĠĠĠĠ": 2962,
      "04": 2963,
      "Ġact": 2964,
      "Ġscope": 2965,
      "Ġpacket": 2966,
      "comb": 2967,
      "mbers": 2968,
      "Response": 2969,
      "ĊĠĠĠĠĠĠĠĠĠĠĠĠĠĠĠĠĠĠĠĠĠĠĠĠĠĠĠĠĠĠĠĠĠĠĠĠĠĠ": 2970,
      "Ġmy": 2971,
      "filepath": 2972,
      "Or": 2973,
      "aded": 2974,
      "hi": 2975,
      ")**": 2976,
      "Ġproperty": 2977,
      ")])": 2978,
      "deg": 2979,
      "Given": 2980,
      "Generate": 2981,
      "ĊĠĠĠĠĠĠĠĠĊĠĠĠĠĠĠĠĠĊĠĠĠĠĠĠĠĠĊĠĠĠĠĠĠĠĠ": 2982,
      "cla": 2983,
      "Ġlon": 2984,
      "encoding": 2985,
      "Calculate": 2986,
      "site": 2987,
      "Sto": 2988,
      "ĊĊ": 2989,
      "Ġrece": 2990,
      "Ġtags": 2991,
      "mu": 2992,
      "uuid": 2993,
      "history": 2994,
      "tegr": 2995,
      "Ġgenerate": 2996,
      "Context": 2997,
      "global": 2998,
      "Ġfra": 2999,
      "Ġclick": 3000,
      "compute": 3001,
      "ĊĠĠĠĠĠĠĠĠĠĠĠĠĠĠĠĠĠĠĠĠĠĠĠĠĠĠĠĠĠĠĠĠĠĠĠĠĠĠĠ": 3002,
      "astype": 3003,
      "Ġbuf": 3004,
      "rain": 3005,
      "symbol": 3006,
      "Ġarr": 3007,
      "hs": 3008,
      "Ġcer": 3009,
      "Ġvariables": 3010,
      "desc": 3011,
      "ority": 3012,
      ":-": 3013,
      "zes": 3014,
      "jobs": 3015,
      "Ġneed": 3016,
      "display": 3017,
      "rest": 3018,
      "sic": 3019,
      "Group": 3020,
      "parameter": 3021,
      "uplic": 3022,
      "Ġ\"_": 3023,
      "VER": 3024,
      "ĠDe": 3025,
      "ĠThis": 3026,
      "sity": 3027,
      "Sub": 3028,
      "Ġexpression": 3029,
      "series": 3030,
      "napshot": 3031,
      "Ġspec": 3032,
      "ful": 3033,
      "Ġ),": 3034,
      "Ġchain": 3035,
      "Ġday": 3036,
      "sym": 3037,
      "Ġinteger": 3038,
      "Ġproperties": 3039,
      "days": 3040,
      "cluster": 3041,
      "ived": 3042,
      "DF": 3043,
      "used": 3044,
      "expression": 3045,
      "LOG": 3046,
      "oom": 3047,
      "tices": 3048,
      "ross": 3049,
      "Ġscore": 3050,
      "Ġevents": 3051,
      "tect": 3052,
      "Ġunicode": 3053,
      "/{": 3054,
      "Ġassoci": 3055,
      "Ġinitial": 3056,
      "dx": 3057,
      "ater": 3058,
      "memory": 3059,
      "ards": 3060,
      "Ġbefore": 3061,
      "help": 3062,
      ".\".": 3063,
      "dumps": 3064,
      "generator": 3065,
      "ports": 3066,
      "partition": 3067,
      "As": 3068,
      "Ġns": 3069,
      "Ġloc": 3070,
      "15": 3071,
      "Ġoriginal": 3072,
      "User": 3073,
      "Ġuri": 3074,
      "ven": 3075,
      "Ġextract": 3076,
      "ĠOptional": 3077,
      "cker": 3078,
      "true": 3079,
      "Ġcandidate": 3080,
      "database": 3081,
      "expected": 3082,
      "lear": 3083,
      "property": 3084,
      "segment": 3085,
      "Ġ[(": 3086,
      "ĠCo": 3087,
      "Ġcomponent": 3088,
      "dentials": 3089,
      "Ġradi": 3090,
      "bounds": 3091,
      "SP": 3092,
      "rot": 3093,
      "ĊĠĠĠĠĠĠĠĠĠĠ": 3094,
      "extract": 3095,
      "BU": 3096,
      "ship": 3097,
      "metric": 3098,
      "cb": 3099,
      "storage": 3100,
      "prec": 3101,
      "][\"": 3102,
      "filters": 3103,
      "vider": 3104,
      "Ġactive": 3105,
      "Ġmissing": 3106,
      "Ġsetattr": 3107,
      "contents": 3108,
      "Ġdst": 3109,
      "Widget": 3110,
      "Ġmulti": 3111,
      "Count": 3112,
      "Ġflow": 3113,
      "center": 3114,
      "ĠURL": 3115,
      "ndarray": 3116,
      "Ġcallable": 3117,
      "Ġprofile": 3118,
      "=-": 3119,
      "regex": 3120,
      "assign": 3121,
      "month": 3122,
      "Ġstdout": 3123,
      "sep": 3124,
      "lections": 3125,
      "Ġwarnings": 3126,
      "Ġcomb": 3127,
      "entity": 3128,
      "Hel": 3129,
      "Ġtx": 3130,
      "ĠIf": 3131,
      "Dec": 3132,
      ")\"": 3133,
      "atches": 3134,
      "ceptions": 3135,
      "prop": 3136,
      "Ġcollection": 3137,
      "Base": 3138,
      "Graph": 3139,
      "=_": 3140,
      "IP": 3141,
      "Ġempty": 3142,
      "sitive": 3143,
      "force": 3144,
      "Ġpredi": 3145,
      "Ġsigma": 3146,
      "inner": 3147,
      "units": 3148,
      "Ġstore": 3149,
      "Ġcontents": 3150,
      "Ġemail": 3151,
      "Ġbit": 3152,
      "Ġxml": 3153,
      "safe": 3154,
      "sole": 3155,
      "Ġdebug": 3156,
      "ĊĊĠĠĠĠĠ": 3157,
      "amily": 3158,
      "lookup": 3159,
      "fact": 3160,
      "ĠIO": 3161,
      "Table": 3162,
      "archive": 3163,
      "single": 3164,
      "freq": 3165,
      "Ġclo": 3166,
      "sql": 3167,
      "Man": 3168,
      "Make": 3169,
      "release": 3170,
      "lish": 3171,
      "messages": 3172,
      "modules": 3173,
      "Ġcate": 3174,
      "reduce": 3175,
      "Ġslice": 3176,
      "ĠIndex": 3177,
      "endpoint": 3178,
      "Ġentity": 3179,
      "vide": 3180,
      "tasks": 3181,
      "SO": 3182,
      "Do": 3183,
      "fici": 3184,
      "Ġ\"{}": 3185,
      "Ġexclude": 3186,
      "Ġdecode": 3187,
      "sted": 3188,
      "Ġ>>": 3189,
      "ERROR": 3190,
      "DB": 3191,
      "DO": 3192,
      "generate": 3193,
      "URL": 3194,
      "relation": 3195,
      "fun": 3196,
      "component": 3197,
      "greg": 3198,
      "long": 3199,
      "Ġsuccess": 3200,
      "flag": 3201,
      "digest": 3202,
      "Ġtransaction": 3203,
      "Ġconf": 3204,
      "SET": 3205,
      "Ġsystem": 3206,
      "after": 3207,
      "resources": 3208,
      "vs": 3209,
      "rence": 3210,
      "structure": 3211,
      "predi": 3212,
      "alization": 3213,
      "ĊĠĠĠĠĊĠĠĠĠĊĠĠĠĠĊĠĠĠĠ": 3214,
      "Ġpipe": 3215,
      "Ġsegment": 3216,
      "Ġchildren": 3217,
      "diag": 3218,
      "Ġfd": 3219,
      "verbose": 3220,
      "Status": 3221,
      "Ġplt": 3222,
      "ynam": 3223,
      "ĠĠĠĠĠ": 3224,
      "Ġ*=": 3225,
      "Ġgener": 3226,
      "ĠJSON": 3227,
      "wise": 3228,
      "rand": 3229,
      "Ġproxy": 3230,
      "Ġannot": 3231,
      "={": 3232,
      "ells": 3233,
      "Ġtrace": 3234,
      "Tag": 3235,
      "Ġ))": 3236,
      "Ġseries": 3237,
      "Ġmodels": 3238,
      "fp": 3239,
      "reader": 3240,
      "nections": 3241,
      "HE": 3242,
      "ĊĠĠĠĠĠĠĠĠĠĠĠĠĠĠĠĠĠĠĠĠĠĠĠĠĠĠĠĠĠĠĠĠĠĠĠĠĠ": 3243,
      "Column": 3244,
      "Ġcenter": 3245,
      "cheme": 3246,
      "utc": 3247,
      "Tree": 3248,
      "Ġreverse": 3249,
      "Ġfix": 3250,
      "Query": 3251,
      "cursive": 3252,
      "Ġgenerator": 3253,
      "Filter": 3254,
      "transaction": 3255,
      "poly": 3256,
      "Ġ7": 3257,
      "ditional": 3258,
      "rough": 3259,
      "uting": 3260,
      "asure": 3261,
      "requency": 3262,
      "100": 3263,
      "mal": 3264,
      "Ġda": 3265,
      "tab": 3266,
      "Ġscal": 3267,
      "lyph": 3268,
      "Ġmatching": 3269,
      "FILE": 3270,
      "member": 3271,
      "ancel": 3272,
      "python": 3273,
      "Ġmodi": 3274,
      "30": 3275,
      "ometry": 3276,
      "vision": 3277,
      "bers": 3278,
      "variant": 3279,
      "Ġfp": 3280,
      "Ġmu": 3281,
      "pher": 3282,
      "Ġfailed": 3283,
      "arange": 3284,
      "mpt": 3285,
      "Ġstats": 3286,
      "Ġterm": 3287,
      "miss": 3288,
      "ĠZ": 3289,
      "condition": 3290,
      "enum": 3291,
      "Ġlower": 3292,
      "Ġshe": 3293,
      "GET": 3294,
      "math": 3295,
      "matches": 3296,
      "ĠPar": 3297,
      "way": 3298,
      "theta": 3299,
      "Sp": 3300,
      "Ġdomain": 3301,
      "Change": 3302,
      "binary": 3303,
      "Ġrec": 3304,
      "Ġfit": 3305,
      "summary": 3306,
      "AP": 3307,
      "Ġreport": 3308,
      "Ġsecond": 3309,
      "UP": 3310,
      "Ġ100": 3311,
      "Tra": 3312,
      "lain": 3313,
      "ases": 3314,
      "Ġrot": 3315,
      "ES": 3316,
      "exceptions": 3317,
      "ollow": 3318,
      "tical": 3319,
      "tify": 3320,
      "Ġsome": 3321,
      "ĠMe": 3322,
      "Ġpas": 3323,
      "Number": 3324,
      "14": 3325,
      "NT": 3326,
      "Send": 3327,
      "Ġpool": 3328,
      "ĠRes": 3329,
      "Ċĉĉĉĉ": 3330,
      "dst": 3331,
      "secret": 3332,
      "gon": 3333,
      "mount": 3334,
      "PRO": 3335,
      "helper": 3336,
      "Ġdisplay": 3337,
      "Ġmemory": 3338,
      "Ġmessages": 3339,
      "ferences": 3340,
      "Al": 3341,
      "Point": 3342,
      "ws": 3343,
      "gger": 3344,
      "Ġfig": 3345,
      "Ġmember": 3346,
      "bins": 3347,
      "ENT": 3348,
      "Method": 3349,
      "arguments": 3350,
      "Ġmetric": 3351,
      "Ġimp": 3352,
      "Ġpop": 3353,
      "moves": 3354,
      "subject": 3355,
      "hidden": 3356,
      "urface": 3357,
      "quences": 3358,
      "ndim": 3359,
      "Ġtensor": 3360,
      "wrapper": 3361,
      "Ġfinal": 3362,
      "span": 3363,
      "compile": 3364,
      "utable": 3365,
      "olute": 3366,
      "sha": 3367,
      "pipe": 3368,
      "font": 3369,
      "Ġhead": 3370,
      "mass": 3371,
      "tries": 3372,
      "Ed": 3373,
      "uble": 3374,
      "Ġty": 3375,
      "Ġmore": 3376,
      "Ġthan": 3377,
      "basename": 3378,
      "Ġendpoint": 3379,
      "abspath": 3380,
      "AS": 3381,
      "Ġelem": 3382,
      "crypt": 3383,
      ":])": 3384,
      "ial": 3385,
      "seed": 3386,
      "dio": 3387,
      "Of": 3388,
      "vm": 3389,
      "org": 3390,
      "Ġfont": 3391,
      "Ġau": 3392,
      "Ġinterval": 3393,
      "/%": 3394,
      "PAT": 3395,
      "Ġlong": 3396,
      "Ġassociated": 3397,
      "Function": 3398,
      "Ġindent": 3399,
      "returns": 3400,
      "bam": 3401,
      "rece": 3402,
      "cks": 3403,
      "ogle": 3404,
      "iod": 3405,
      "scriptor": 3406,
      "čĊč": 3407,
      "ava": 3408,
      "Helper": 3409,
      "Ġappro": 3410,
      "Mode": 3411,
      "components": 3412,
      "Ġinterface": 3413,
      "serialize": 3414,
      "Sign": 3415,
      "CK": 3416,
      "Const": 3417,
      "Delete": 3418,
      "loss": 3419,
      "Ġiterable": 3420,
      "chine": 3421,
      "logy": 3422,
      "----": 3423,
      "Ġcalled": 3424,
      "mid": 3425,
      "second": 3426,
      "=%": 3427,
      "Ġrole": 3428,
      "Ġspecific": 3429,
      "ĠĊĠĠĠĠĠĠĠĠĠĠĠ": 3430,
      "gener": 3431,
      "ulation": 3432,
      "product": 3433,
      "rank": 3434,
      "rents": 3435,
      "Ġfactor": 3436,
      "environ": 3437,
      "Ġcompute": 3438,
      "Ġsite": 3439,
      "area": 3440,
      "ability": 3441,
      "maining": 3442,
      "Ġ:]": 3443,
      "retry": 3444,
      "ged": 3445,
      "linalg": 3446,
      "changed": 3447,
      "Ġopt": 3448,
      "links": 3449,
      "Ġedges": 3450,
      "sm": 3451,
      "Ġbinary": 3452,
      "Ġfname": 3453,
      "signature": 3454,
      "Ġ16": 3455,
      "pixel": 3456,
      "undle": 3457,
      "Instance": 3458,
      "Ġbasestring": 3459,
      "aved": 3460,
      "istered": 3461,
      "Ġcontrol": 3462,
      "public": 3463,
      "QL": 3464,
      "Ġstyle": 3465,
      "iteritems": 3466,
      "catalog": 3467,
      "auto": 3468,
      "Ġcat": 3469,
      "Ġstructure": 3470,
      "common": 3471,
      "Ġrepresentation": 3472,
      "Ġbox": 3473,
      "Ġmonth": 3474,
      "Ġ9": 3475,
      "DS": 3476,
      "light": 3477,
      "candidate": 3478,
      "complete": 3479,
      "Ġseconds": 3480,
      "Ġweight": 3481,
      "Checks": 3482,
      "moved": 3483,
      "agent": 3484,
      "Ġapply": 3485,
      "cum": 3486,
      "defaults": 3487,
      "blem": 3488,
      "\"][": 3489,
      "ET": 3490,
      "IL": 3491,
      "Ġ--": 3492,
      "Image": 3493,
      "inds": 3494,
      "engine": 3495,
      "cm": 3496,
      "inf": 3497,
      "sl": 3498,
      "termine": 3499,
      "_.": 3500,
      "eded": 3501,
      "neighb": 3502,
      "obs": 3503,
      "__.__": 3504,
      "ĊĊĉ": 3505,
      "Ġ12": 3506,
      "Ġattrs": 3507,
      "Ġbeen": 3508,
      "ignore": 3509,
      "Ġregex": 3510,
      "div": 3511,
      "spatch": 3512,
      "targets": 3513,
      "ker": 3514,
      "Ġwithin": 3515,
      "suffix": 3516,
      "Ġsignature": 3517,
      "ĠEn": 3518,
      "Line": 3519,
      "Ġfolder": 3520,
      "Ġsw": 3521,
      "periment": 3522,
      "oms": 3523,
      "fiers": 3524,
      "ished": 3525,
      "Ġupper": 3526,
      "Date": 3527,
      "Gener": 3528,
      "_)": 3529,
      "\"\\": 3530,
      "raints": 3531,
      "aries": 3532,
      "success": 3533,
      "__.": 3534,
      "Ġreal": 3535,
      "Ġflu": 3536,
      "Result": 3537,
      "TIME": 3538,
      "Ġfeatures": 3539,
      "AGE": 3540,
      "Over": 3541,
      ")).": 3542,
      "Ġpoly": 3543,
      "custom": 3544,
      "her": 3545,
      "Ġcap": 3546,
      "ector": 3547,
      "cip": 3548,
      "indexes": 3549,
      "tic": 3550,
      "asarray": 3551,
      "Ġselected": 3552,
      "Ġflag": 3553,
      "ĊĠĠĠĠĊĊĠĠĠĠĊĠĠĠ": 3554,
      "vas": 3555,
      "ATA": 3556,
      "Ġcluster": 3557,
      "bro": 3558,
      "Converts": 3559,
      "Ġassign": 3560,
      "respon": 3561,
      "Ġactiv": 3562,
      "missing": 3563,
      "(\"/": 3564,
      "integer": 3565,
      "hes": 3566,
      "comment": 3567,
      "19": 3568,
      "]])": 3569,
      "ĊĠĠĠĠĠĠĠĠĠĠĠĠĠĠĠĠĠĠĠĠĠĠĠĠĠĠĠĠĠĠĠĠĠĠĠĠĠĠĠĠĠĠĠĠĠĠĠĠĠĠĠĠĠĠĠĠĠĠĠĠĠĠĠĠ": 3570,
      "Sy": 3571,
      "menu": 3572,
      "render": 3573,
      "Ġfill": 3574,
      "Failed": 3575,
      "before": 3576,
      "Ġjoin": 3577,
      "ressed": 3578,
      "cel": 3579,
      "Ġdirection": 3580,
      "epcopy": 3581,
      "cd": 3582,
      "Ġla": 3583,
      "attention": 3584,
      "ga": 3585,
      "ĠĠĊĠĠĠĠĠĠĠĠĠĠĠĠĠĠĠ": 3586,
      "Ġrel": 3587,
      "ency": 3588,
      "found": 3589,
      "ABLE": 3590,
      "gap": 3591,
      "Ġstypes": 3592,
      "Ġpixel": 3593,
      "wraps": 3594,
      "policy": 3595,
      "fail": 3596,
      "andard": 3597,
      "Ġrepo": 3598,
      "required": 3599,
      "Stream": 3600,
      "Lay": 3601,
      "OP": 3602,
      "Wrap": 3603,
      "dl": 3604,
      "ĠDE": 3605,
      "Handle": 3606,
      "isfile": 3607,
      "shift": 3608,
      "Initi": 3609,
      "card": 3610,
      "kernel": 3611,
      "counter": 3612,
      "lex": 3613,
      "codes": 3614,
      "Ġrdf": 3615,
      "33": 3616,
      "Action": 3617,
      "metrics": 3618,
      "Ġgroups": 3619,
      "ops": 3620,
      "Ġdesc": 3621,
      "pairs": 3622,
      "hour": 3623,
      "colors": 3624,
      "Implemented": 3625,
      "Ġretry": 3626,
      "Ġinspect": 3627,
      "Version": 3628,
      "ulate": 3629,
      "role": 3630,
      "Ġasyn": 3631,
      "running": 3632,
      "rl": 3633,
      "Ġdraw": 3634,
      "tence": 3635,
      "cfg": 3636,
      "okie": 3637,
      "hood": 3638,
      "ĠAny": 3639,
      "''": 3640,
      "FO": 3641,
      "Ġdefined": 3642,
      "INT": 3643,
      "fasta": 3644,
      "cn": 3645,
      "writer": 3646,
      "tl": 3647,
      "Ġrequire": 3648,
      "Build": 3649,
      "Ġsql": 3650,
      "setup": 3651,
      "ZE": 3652,
      "Ġcharact": 3653,
      "latform": 3654,
      "ein": 3655,
      "atic": 3656,
      "Ġmultiple": 3657,
      "Ġstrings": 3658,
      "Ġfilters": 3659,
      "lack": 3660,
      "threshold": 3661,
      "outputs": 3662,
      "Open": 3663,
      "cessed": 3664,
      "Ġ[])": 3665,
      "sigma": 3666,
      "Ġtheta": 3667,
      "handlers": 3668,
      "Qt": 3669,
      "fmt": 3670,
      "Ġrender": 3671,
      ":%": 3672,
      "Ġfuture": 3673,
      "permission": 3674,
      "Ġexceptions": 3675,
      "cio": 3676,
      "Ġkernel": 3677,
      "[:]": 3678,
      "``.": 3679,
      "Connection": 3680,
      "Ġstderr": 3681,
      "Ġyear": 3682,
      "SION": 3683,
      "SError": 3684,
      "glob": 3685,
      "Ġsin": 3686,
      "apter": 3687,
      "Ġmag": 3688,
      "FOR": 3689,
      "čĊĠĠĠĠĠĠĠĠĠĠĠĠĠĠĠĠĠĠĠ": 3690,
      "curity": 3691,
      "lots": 3692,
      "kets": 3693,
      "conj": 3694,
      "culates": 3695,
      "estim": 3696,
      "ratio": 3697,
      "include": 3698,
      "Ġbeta": 3699,
      "utor": 3700,
      "Ġlock": 3701,
      "Ġalign": 3702,
      "Ġauto": 3703,
      "provider": 3704,
      "Ġyou": 3705,
      "Ġenvironment": 3706,
      "best": 3707,
      "\"\"\"": 3708,
      "eval": 3709,
      "ĊĊĠĠĠĠĠĠĠĠĠĠĠĠĠĠĠĠĊĠĠĠĠĠĠĠĠĠĠĠĠĠĠĠ": 3710,
      "ither": 3711,
      "axes": 3712,
      "Ġallowed": 3713,
      "progress": 3714,
      "View": 3715,
      "Ġpossible": 3716,
      "done": 3717,
      "fg": 3718,
      "editor": 3719,
      "cii": 3720,
      "skip": 3721,
      "Ġpassed": 3722,
      "Ġfast": 3723,
      "served": 3724,
      "ish": 3725,
      "beta": 3726,
      "Ġutil": 3727,
      "tax": 3728,
      "unicode": 3729,
      "play": 3730,
      "urls": 3731,
      "Ġvariant": 3732,
      "rup": 3733,
      "ength": 3734,
      "čĊčĊĠĠĠĠĠĠĠ": 3735,
      "Ġ\"\",": 3736,
      "tifact": 3737,
      "Ġinternal": 3738,
      "If": 3739,
      "Level": 3740,
      "ail": 3741,
      "epoch": 3742,
      "ckle": 3743,
      "GS": 3744,
      "tool": 3745,
      "Ġestim": 3746,
      "Ġ).": 3747,
      "prev": 3748,
      "ĠNotImplemented": 3749,
      "Ġdestination": 3750,
      "flush": 3751,
      "null": 3752,
      "sters": 3753,
      "Ġids": 3754,
      "anti": 3755,
      "256": 3756,
      "Ġcoordinates": 3757,
      "begin": 3758,
      "indent": 3759,
      "conv": 3760,
      "Ġdiffe": 3761,
      ",)": 3762,
      "Auth": 3763,
      "rer": 3764,
      "normal": 3765,
      "VE": 3766,
      "walk": 3767,
      "Ġidentifier": 3768,
      "struction": 3769,
      "13": 3770,
      "UM": 3771,
      "Ġvals": 3772,
      "ĠRE": 3773,
      "VI": 3774,
      "language": 3775,
      "none": 3776,
      "internal": 3777,
      "loader": 3778,
      "riv": 3779,
      "patch": 3780,
      "cov": 3781,
      "Ġexpr": 3782,
      "Ġprogress": 3783,
      "Ġsubprocess": 3784,
      "Output": 3785,
      "Manager": 3786,
      "Ġfmt": 3787,
      "Ġba": 3788,
      "Ġdx": 3789,
      "mbols": 3790,
      "Ġsupported": 3791,
      "OT": 3792,
      "free": 3793,
      "Ġunder": 3794,
      "Block": 3795,
      "FFFF": 3796,
      "Code": 3797,
      "ib": 3798,
      "csv": 3799,
      "Store": 3800,
      "endency": 3801,
      "initial": 3802,
      "ĠIndexError": 3803,
      "Ġbounds": 3804,
      "_(": 3805,
      "PAR": 3806,
      "repr": 3807,
      "cesses": 3808,
      "lug": 3809,
      "original": 3810,
      "operation": 3811,
      "ili": 3812,
      "bucket": 3813,
      "ĠFile": 3814,
      "dimension": 3815,
      "ized": 3816,
      "backend": 3817,
      "rees": 3818,
      "records": 3819,
      "Ġcurr": 3820,
      "sock": 3821,
      "ĊĊĠĠĠĠĠĠĠĠĠĠĠĠĠĠĠĠĠĠĠ": 3822,
      "Ġfail": 3823,
      "Ra": 3824,
      "Record": 3825,
      "flatten": 3826,
      "ole": 3827,
      "ĠOr": 3828,
      "Ġreset": 3829,
      "Ġprob": 3830,
      "worker": 3831,
      "andas": 3832,
      "Retrieve": 3833,
      "ĠIOError": 3834,
      "]+": 3835,
      "clip": 3836,
      "Ġcontains": 3837,
      "Ġcoords": 3838,
      "DataFrame": 3839,
      "Color": 3840,
      "ush": 3841,
      "Ġpadding": 3842,
      "Ġconver": 3843,
      "presen": 3844,
      "Ġtile": 3845,
      "master": 3846,
      "oices": 3847,
      "zed": 3848,
      "lied": 3849,
      "proto": 3850,
      "Ġpython": 3851,
      "kind": 3852,
      "squ": 3853,
      "Ġhigh": 3854,
      "Ġsm": 3855,
      "unce": 3856,
      "ogram": 3857,
      "sync": 3858,
      "Ġrelative": 3859,
      "/(": 3860,
      "scores": 3861,
      "Ġappend": 3862,
      "ration": 3863,
      "ilar": 3864,
      "Ġxrange": 3865,
      "radius": 3866,
      "[(": 3867,
      "NotFound": 3868,
      "Ġdd": 3869,
      "Box": 3870,
      "gp": 3871,
      "Ġcy": 3872,
      "FIG": 3873,
      "ĠPython": 3874,
      "pred": 3875,
      "ĊĠĠĠĠĠĠĠĠĠĠĠĠĠĠĠĠĠĠĠĠĠĠĠĠĠĠĠĠĠĠĠĠĠĠĠĠĠĠĠĠĠĠ": 3876,
      "spaces": 3877,
      "Sc": 3878,
      "Ġcontaining": 3879,
      "Ġcorrespon": 3880,
      "Ġbackend": 3881,
      "crypted": 3882,
      "strings": 3883,
      "Ġscript": 3884,
      ".)": 3885,
      "delay": 3886,
      "roid": 3887,
      "mip": 3888,
      "Ġ\")": 3889,
      "origin": 3890,
      "require": 3891,
      "Extract": 3892,
      "hparams": 3893,
      "einsum": 3894,
      "ĊĠĠĠĠĠĠĠĠĠĠĠĠĠĠĠĠĠĠĠĠĠĠĠĠĠĠĠĠĠĠĠĠĠĠĠĠĠĠĠĠĠĠĠ": 3895,
      "raint": 3896,
      "ended": 3897,
      "Ġlanguage": 3898,
      "ĠĠĠĠĠĠ": 3899,
      "SIZE": 3900,
      "olean": 3901,
      "note": 3902,
      "images": 3903,
      "alled": 3904,
      "Ġcreated": 3905,
      "ving": 3906,
      "ands": 3907,
      "exclude": 3908,
      "Ġtimes": 3909,
      "tact": 3910,
      "40": 3911,
      "mac": 3912,
      "Ġmay": 3913,
      "Ġrecords": 3914,
      "Ġangle": 3915,
      "Ġvisit": 3916,
      "Ġep": 3917,
      "Ġcondition": 3918,
      "Ġpartition": 3919,
      "Ġentries": 3920,
      "(\"--": 3921,
      "scan": 3922,
      "sources": 3923,
      "ĠEx": 3924,
      "cimal": 3925,
      "={}": 3926,
      "Ġrelation": 3927,
      "direction": 3928,
      "ĠInvalid": 3929,
      "Ġrest": 3930,
      "(\".": 3931,
      "elem": 3932,
      "IG": 3933,
      "Ġmethods": 3934,
      "ifest": 3935,
      "Ġlike": 3936,
      "Ġbucket": 3937,
      "Ġsuffix": 3938,
      "UB": 3939,
      "leted": 3940,
      "cr": 3941,
      "Ġ[],": 3942,
      "ĠSer": 3943,
      "frames": 3944,
      "Ġsubject": 3945,
      "des": 3946,
      "calls": 3947,
      "registry": 3948,
      "partial": 3949,
      "uint": 3950,
      "come": 3951,
      "ĊĠĠĠĠĠĠĠĠĠĠĠĠĠĠĠĠĠĠĠĠĠĠĠĠĠĠĠĠĠĠĠĠĠĠĠĠĠĠĠĠĠ": 3952,
      "choice": 3953,
      "ocation": 3954,
      "Thread": 3955,
      "Row": 3956,
      "tifi": 3957,
      "Ġbits": 3958,
      "duration": 3959,
      "future": 3960,
      "Ġduration": 3961,
      "Ġinvalid": 3962,
      "expi": 3963,
      "byref": 3964,
      "isdir": 3965,
      "Ġfunctions": 3966,
      "closed": 3967,
      "Temp": 3968,
      "Ġnormalize": 3969,
      "Desc": 3970,
      "short": 3971,
      "Ġperiod": 3972,
      "Ġts": 3973,
      "Ġwin": 3974,
      "Search": 3975,
      "PRE": 3976,
      "wn": 3977,
      "Ġradius": 3978,
      "high": 3979,
      "mesh": 3980,
      "Ġcollections": 3981,
      "Ġmove": 3982,
      "Ġmanager": 3983,
      "OL": 3984,
      "branch": 3985,
      "cipy": 3986,
      "ĠNotImplementedError": 3987,
      "seek": 3988,
      "Ġtor": 3989,
      "faces": 3990,
      "Ġhtml": 3991,
      "Ġrank": 3992,
      "Ġsymbol": 3993,
      "Attribute": 3994,
      "Ġseed": 3995,
      "abel": 3996,
      "Ġio": 3997,
      "Ġsetup": 3998,
      "Register": 3999,
      "dat": 4000,
      "ynamic": 4001,
      "Ġstar": 4002,
      "verify": 4003,
      "resolve": 4004,
      "interface": 4005,
      "install": 4006,
      "Cannot": 4007,
      "Ġ..": 4008,
      "Ġprotocol": 4009,
      "Arg": 4010,
      "cpu": 4011,
      "deredDict": 4012,
      "Ġhttp": 4013,
      "category": 4014,
      "Ġcorrect": 4015,
      "Can": 4016,
      "invalid": 4017,
      "allel": 4018,
      "sizes": 4019,
      "PATH": 4020,
      "Calculates": 4021,
      "ools": 4022,
      "gories": 4023,
      "([\"": 4024,
      "Ġexit": 4025,
      "Job": 4026,
      "ĊĠĠĠĠĠĠĠĠĠĠĠĠĊĠĠĠĠĠĠĠĠĠĠĠĠĊĠĠĠĠĠĠĠĠĠĠĠĠĊĠĠĠĠĠĠĠĠĠĠĠ": 4027,
      "normalize": 4028,
      "Ġcols": 4029,
      "acy": 4030,
      "ĊĠĠĠĠĠĠĠĠĊĠĠĠĠĠĠĠĠĊĠĠĠĠĠĠĠĠĊĠĠĠĠĠĠĠĠĊĠĠĠĠĠĠĠ": 4031,
      "Ġproduct": 4032,
      "volume": 4033,
      "Ġpairs": 4034,
      "Command": 4035,
      "Ġalias": 4036,
      "selected": 4037,
      "visit": 4038,
      "variance": 4039,
      "nb": 4040,
      "akes": 4041,
      "notification": 4042,
      "button": 4043,
      "zen": 4044,
      "logical": 4045,
      "ĠDict": 4046,
      "hy": 4047,
      "sem": 4048,
      "rector": 4049,
      "lev": 4050,
      "Ġrunning": 4051,
      "Series": 4052,
      "Ġspace": 4053,
      "Ġrho": 4054,
      "Entry": 4055,
      "drop": 4056,
      "members": 4057,
      "Ġthrough": 4058,
      "download": 4059,
      "unpack": 4060,
      "Ġproto": 4061,
      "valuate": 4062,
      "enate": 4063,
      "lihood": 4064,
      "pout": 4065,
      "STR": 4066,
      "emit": 4067,
      "oid": 4068,
      "plan": 4069,
      "atrix": 4070,
      "Ġcase": 4071,
      "Ġverify": 4072,
      "padding": 4073,
      "Ġrect": 4074,
      "quire": 4075,
      "Ġind": 4076,
      "embed": 4077,
      "ier": 4078,
      "protocol": 4079,
      "Ġorigin": 4080,
      "SER": 4081,
      "reverse": 4082,
      "uff": 4083,
      "Ġli": 4084,
      "isinstance": 4085,
      "Ġstorage": 4086,
      "ender": 4087,
      "Ġhook": 4088,
      "Warning": 4089,
      "lst": 4090,
      "icro": 4091,
      "tificate": 4092,
      "HTTP": 4093,
      "orld": 4094,
      "Ġpr": 4095,
      "coord": 4096,
      "End": 4097,
      "Ġeditor": 4098,
      "connected": 4099,
      "creen": 4100,
      "02": 4101,
      "atom": 4102,
      "Service": 4103,
      "uler": 4104,
      "grad": 4105,
      "Ġ|=": 4106,
      "vl": 4107,
      "Ġreader": 4108,
      "Ġsym": 4109,
      "Ġcounter": 4110,
      "Ġcategory": 4111,
      "Ġds": 4112,
      "thing": 4113,
      "Ġatom": 4114,
      "Met": 4115,
      "Ġinner": 4116,
      "win": 4117,
      "}/": 4118,
      "Ġworker": 4119,
      "Ġ(%": 4120,
      "ured": 4121,
      "sumer": 4122,
      "holder": 4123,
      "ĠĊĠĠĠ": 4124,
      "ines": 4125,
      "Ġfiltered": 4126,
      "Oper": 4127,
      "dec": 4128,
      "Ġsyn": 4129,
      "commands": 4130,
      "Ġensure": 4131,
      "gt": 4132,
      "Ġus": 4133,
      "Ġthem": 4134,
      "versed": 4135,
      "Ġvolume": 4136,
      "Ġaddr": 4137,
      "actor": 4138,
      "Ġ\"\")": 4139,
      "Ġlookup": 4140,
      "transport": 4141,
      "ient": 4142,
      "Ġtz": 4143,
      "loaded": 4144,
      "Down": 4145,
      "Ġdump": 4146,
      "mav": 4147,
      "Ġmesh": 4148,
      "setdefault": 4149,
      "available": 4150,
      "Ġiterator": 4151,
      "Ġreply": 4152,
      "Ġselection": 4153,
      "ampling": 4154,
      "Is": 4155,
      "MS": 4156,
      "Ġmid": 4157,
      "END": 4158,
      "Ġbi": 4159,
      "INTER": 4160,
      "uted": 4161,
      "parsed": 4162,
      "Ġblob": 4163,
      "Ġneighb": 4164,
      "Ġdistribution": 4165,
      "tol": 4166,
      "course": 4167,
      "!\")": 4168,
      "::": 4169,
      "ilt": 4170,
      "ification": 4171,
      "packet": 4172,
      "ascii": 4173,
      "Ġsepar": 4174,
      "owner": 4175,
      "Ġclear": 4176,
      "23": 4177,
      "jection": 4178,
      "arse": 4179,
      "Ġdone": 4180,
      "Ġthen": 4181,
      "refs": 4182,
      "ferred": 4183,
      "aves": 4184,
      "proc": 4185,
      "instances": 4186,
      "Ġinstances": 4187,
      "cached": 4188,
      "identity": 4189,
      "dence": 4190,
      "cluded": 4191,
      "ĠOSError": 4192,
      "OUT": 4193,
      "Ġclasses": 4194,
      "Ġglob": 4195,
      "power": 4196,
      "Ġfetch": 4197,
      "ditions": 4198,
      "Ġdot": 4199,
      "Ġthreshold": 4200,
      "Ġround": 4201,
      "Ġactual": 4202,
      "Ġzero": 4203,
      "Ġreduce": 4204,
      "Ġcolors": 4205,
      "route": 4206,
      "edit": 4207,
      "Ġ*,": 4208,
      "Ġfollow": 4209,
      "Ġbind": 4210,
      "mk": 4211,
      "px": 4212,
      "rf": 4213,
      "peat": 4214,
      "final": 4215,
      "Ġmedi": 4216,
      "Ġpkg": 4217,
      "56": 4218,
      "pm": 4219,
      "ango": 4220,
      "Ġwords": 4221,
      "Ġrv": 4222,
      "dependencies": 4223,
      "Ġseen": 4224,
      "az": 4225,
      "syn": 4226,
      "Ġnamed": 4227,
      "pix": 4228,
      "ACK": 4229,
      "CONFIG": 4230,
      "Ġbranch": 4231,
      "Range": 4232,
      "oot": 4233,
      "leg": 4234,
      "Ġpid": 4235,
      "application": 4236,
      "users": 4237,
      "Use": 4238,
      "driver": 4239,
      "umb": 4240,
      "Content": 4241,
      "Dir": 4242,
      "All": 4243,
      "API": 4244,
      "track": 4245,
      "18": 4246,
      "Ġcached": 4247,
      "Ġoutputs": 4248,
      "ĊĊĠĠĊĠ": 4249,
      "Ġnb": 4250,
      "ĠImport": 4251,
      "licit": 4252,
      "ality": 4253,
      "sertion": 4254,
      "pointer": 4255,
      "Ġshutil": 4256,
      "week": 4257,
      "Vector": 4258,
      "Ġoperator": 4259,
      "Ġasyncio": 4260,
      "cli": 4261,
      "()),": 4262,
      "(\"-": 4263,
      "asset": 4264,
      "sn": 4265,
      "ropout": 4266,
      "example": 4267,
      "Ġpermission": 4268,
      "Fe": 4269,
      "ctools": 4270,
      "IC": 4271,
      "Ġtab": 4272,
      "ĠPo": 4273,
      "double": 4274,
      "transpose": 4275,
      "cu": 4276,
      "prepare": 4277,
      "screen": 4278,
      "web": 4279,
      "ential": 4280,
      "chron": 4281,
      "olved": 4282,
      "amo": 4283,
      "ALL": 4284,
      "Ġve": 4285,
      "Ġbro": 4286,
      "ĠHTTP": 4287,
      "servation": 4288,
      "ptr": 4289,
      "erature": 4290,
      "builder": 4291,
      "Ġfilepath": 4292,
      "Cursor": 4293,
      ")(": 4294,
      "seg": 4295,
      "enabled": 4296,
      "unch": 4297,
      "press": 4298,
      "Ġuntil": 4299,
      "Ġextension": 4300,
      "Header": 4301,
      "Decor": 4302,
      "sections": 4303,
      "crement": 4304,
      "ropy": 4305,
      "17": 4306,
      "ior": 4307,
      "Ġnet": 4308,
      "Ref": 4309,
      "dle": 4310,
      "bias": 4311,
      "AG": 4312,
      "definition": 4313,
      "chor": 4314,
      "vertices": 4315,
      "Validation": 4316,
      "iver": 4317,
      "cycle": 4318,
      "functions": 4319,
      "eric": 4320,
      "mooth": 4321,
      "lices": 4322,
      "exist": 4323,
      "ckets": 4324,
      "tty": 4325,
      "Ġfeed": 4326,
      "(\"{": 4327,
      "program": 4328,
      "Ġmaximum": 4329,
      "scalar": 4330,
      "Ġcorresponding": 4331,
      "details": 4332,
      "Ġexpi": 4333,
      "encoder": 4334,
      "Ġmd": 4335,
      "Ġinstall": 4336,
      "rectories": 4337,
      "scribe": 4338,
      "Ġcomment": 4339,
      "Ġcut": 4340,
      "cording": 4341,
      "Ġimages": 4342,
      "Ġencoded": 4343,
      "Ġexecute": 4344,
      "alance": 4345,
      "ather": 4346,
      "Ġsummary": 4347,
      "Ġ[[": 4348,
      "MAX": 4349,
      "Obj": 4350,
      "jor": 4351,
      "Ġnote": 4352,
      "predict": 4353,
      "forward": 4354,
      "separ": 4355,
      "supported": 4356,
      "pd": 4357,
      "arm": 4358,
      "Ġunits": 4359,
      "methods": 4360,
      "Ass": 4361,
      "pen": 4362,
      "Ġbl": 4363,
      "rtual": 4364,
      "Ġeither": 4365,
      "Ġanother": 4366,
      "cert": 4367,
      "]],": 4368,
      "tps": 4369,
      "Ġwithout": 4370,
      "yaml": 4371,
      "effici": 4372,
      "rho": 4373,
      "Ġminimum": 4374,
      "Link": 4375,
      "this": 4376,
      "pdf": 4377,
      "algorithm": 4378,
      "Int": 4379,
      "configs": 4380,
      "utdown": 4381,
      "assert": 4382,
      "ĠCh": 4383,
      "CM": 4384,
      "OK": 4385,
      "argin": 4386,
      "resses": 4387,
      "chunks": 4388,
      "Ġagent": 4389,
      "gative": 4390,
      "ice": 4391,
      "enter": 4392,
      "spl": 4393,
      "Ġhour": 4394,
      "Ġchunks": 4395,
      "NS": 4396,
      "Ġpartial": 4397,
      "break": 4398,
      "Ġci": 4399,
      "Ġactions": 4400,
      "We": 4401,
      "Window": 4402,
      "Ġdrop": 4403,
      "Ġkeyword": 4404,
      "Ġspe": 4405,
      "UE": 4406,
      "semb": 4407,
      "Doc": 4408,
      "echo": 4409,
      "relative": 4410,
      "Ġresources": 4411,
      "ower": 4412,
      "ead": 4413,
      "rites": 4414,
      "Ġtol": 4415,
      "mem": 4416,
      "Ġshort": 4417,
      "emon": 4418,
      "AND": 4419,
      "configuration": 4420,
      "Ġcomponents": 4421,
      "COL": 4422,
      "Ġdownload": 4423,
      "imer": 4424,
      "refresh": 4425,
      "cing": 4426,
      "ire": 4427,
      "alet": 4428,
      "Ġhy": 4429,
      "FIEL": 4430,
      ")-": 4431,
      "tn": 4432,
      "Ġscipy": 4433,
      "Pa": 4434,
      "Ġ60": 4435,
      "firm": 4436,
      "ancest": 4437,
      "vocab": 4438,
      "ram": 4439,
      "Char": 4440,
      "}\"": 4441,
      "Ġ/=": 4442,
      "Ġcfg": 4443,
      "lengths": 4444,
      "Ġapplication": 4445,
      "Ġplace": 4446,
      "ssl": 4447,
      "Ġden": 4448,
      "ridge": 4449,
      "uous": 4450,
      "attach": 4451,
      "Ġdat": 4452,
      "Ġpolicy": 4453,
      "Ġsock": 4454,
      "Ġtrue": 4455,
      "ĠNo": 4456,
      "Ġaccording": 4457,
      "ĠQu": 4458,
      "ueue": 4459,
      "Ġ1000": 4460,
      "Ġrate": 4461,
      "structor": 4462,
      "argv": 4463,
      "]).": 4464,
      "entication": 4465,
      "Ġcalculate": 4466,
      "Ġwrapped": 4467,
      "ond": 4468,
      "vely": 4469,
      "ĠUnion": 4470,
      "iler": 4471,
      "Ġcourse": 4472,
      "Device": 4473,
      "Ġaxes": 4474,
      "Ġtransp": 4475,
      "ĠImportError": 4476,
      "ĠXML": 4477,
      "gene": 4478,
      "Seri": 4479,
      "Pri": 4480,
      "mas": 4481,
      "Ġlow": 4482,
      "ubclass": 4483,
      "POST": 4484,
      "uplicate": 4485,
      "PER": 4486,
      "ields": 4487,
      "deepcopy": 4488,
      "Ġsafe": 4489,
      "Ġtasks": 4490,
      "modified": 4491,
      "ks": 4492,
      "optimi": 4493,
      "Ġprec": 4494,
      "Could": 4495,
      "private": 4496,
      "Ġequal": 4497,
      "Ġtargets": 4498,
      "operator": 4499,
      "itext": 4500,
      "ssian": 4501,
      "precated": 4502,
      "zoom": 4503,
      "ĠLo": 4504,
      "ĠBase": 4505,
      "Ġcommit": 4506,
      "Ġalt": 4507,
      "noise": 4508,
      "-%": 4509,
      "tice": 4510,
      "calc": 4511,
      "Ġdy": 4512,
      "lists": 4513,
      "Ġshift": 4514,
      "Ġpatch": 4515,
      "Ġmetrics": 4516,
      "Ġcb": 4517,
      "Ġstored": 4518,
      "extension": 4519,
      "Child": 4520,
      "čĊčĊĠĠĠĠĠĠĠĠĊĠĠĠĠĠĠĠĠ": 4521,
      "75": 4522,
      "pending": 4523,
      "Ġ:,": 4524,
      "SIG": 4525,
      "Ġshell": 4526,
      "alette": 4527,
      "multip": 4528,
      "Ġgot": 4529,
      "limits": 4530,
      ",))": 4531,
      "vertex": 4532,
      "Removes": 4533,
      "pping": 4534,
      "joint": 4535,
      "runtime": 4536,
      "game": 4537,
      "izer": 4538,
      "ĊĠĠĊĠĠ": 4539,
      "hostname": 4540,
      "semble": 4541,
      "ired": 4542,
      "Ġcannot": 4543,
      "admin": 4544,
      "Ġchanged": 4545,
      "pkg": 4546,
      "ĠGet": 4547,
      "cost": 4548,
      "(\"{}": 4549,
      "ĠConfig": 4550,
      "Ġprovider": 4551,
      "Updates": 4552,
      "destination": 4553,
      "bank": 4554,
      "Ġlineno": 4555,
      "Ġinsert": 4556,
      "getattr": 4557,
      "ĊĠĠĠĠĠĠĠĠĠĠĠĠĠĠĠĠĠĠĠĠĠĠĠĠĊĠĠĠĠĠĠĠĠĠĠĠĠĠĠĠĠĠĠĠĠĠĠĠ": 4558,
      "push": 4559,
      "Ġ,": 4560,
      "ĊĠĠĠĠĠĠĠĠĠĠĠĠĠĠĠĠĊĠĠĠĠĠĠĠĠĠĠĠĠĠĠĠĠ": 4561,
      "login": 4562,
      "initions": 4563,
      "MAT": 4564,
      "Token": 4565,
      "Ġcomplete": 4566,
      "ache": 4567,
      "alf": 4568,
      "loy": 4569,
      "sid": 4570,
      "family": 4571,
      "sess": 4572,
      "Ġtheir": 4573,
      "Unknown": 4574,
      "constants": 4575,
      "čĊčĊĠĠĠĠĠĠĠĠĊĠĠĠĠĠĠĠĠčĊĠĠĠĠĠĠĠ": 4576,
      "Ġkw": 4577,
      "orter": 4578,
      "prog": 4579,
      "Ġdefinition": 4580,
      "90": 4581,
      "Min": 4582,
      "ww": 4583,
      "Ġdelay": 4584,
      "22": 4585,
      "LIN": 4586,
      "ike": 4587,
      "scheme": 4588,
      "Ġhelper": 4589,
      "bottom": 4590,
      "`,": 4591,
      "Ġ\"__": 4592,
      "Connect": 4593,
      "formed": 4594,
      "CS": 4595,
      "Ġstates": 4596,
      "Validate": 4597,
      "static": 4598,
      "rn": 4599,
      "writ": 4600,
      "Ġ{})": 4601,
      "Ġcounts": 4602,
      "BUG": 4603,
      "equal": 4604,
      "xs": 4605,
      "Ġinv": 4606,
      "Ġyaml": 4607,
      "statement": 4608,
      "Ġ255": 4609,
      "Values": 4610,
      "Ġphi": 4611,
      "Ho": 4612,
      "IM": 4613,
      "idual": 4614,
      "Position": 4615,
      "aff": 4616,
      "čĊĠĠĠĠ": 4617,
      "Ġeff": 4618,
      "RA": 4619,
      "66": 4620,
      "TS": 4621,
      "Ġcos": 4622,
      "curr": 4623,
      "iterator": 4624,
      "prior": 4625,
      "Ġevery": 4626,
      "Ġ\"\".": 4627,
      "ĠIP": 4628,
      "MM": 4629,
      "ĠSet": 4630,
      "Ġhex": 4631,
      "Default": 4632,
      "Func": 4633,
      "Ġrecursive": 4634,
      "Ġarea": 4635,
      "phase": 4636,
      "reams": 4637,
      "Ġgamma": 4638,
      "Ġdeg": 4639,
      "Ġindexes": 4640,
      "Ġweb": 4641,
      "Ġamount": 4642,
      "Ġabout": 4643,
      "And": 4644,
      "zy": 4645,
      "Ġfreq": 4646,
      "tig": 4647,
      "Ġcla": 4648,
      "rozen": 4649,
      "disc": 4650,
      "Iteration": 4651,
      "Ġspan": 4652,
      "threads": 4653,
      "cwd": 4654,
      "rr": 4655,
      "velo": 4656,
      "Ġdimension": 4657,
      "Match": 4658,
      "Ġprivate": 4659,
      "Ġtermin": 4660,
      "Label": 4661,
      "bus": 4662,
      "Ġsetting": 4663,
      "compress": 4664,
      "ORD": 4665,
      "Ġpublic": 4666,
      "Ġcir": 4667,
      "amount": 4668,
      "istics": 4669,
      "Source": 4670,
      "amer": 4671,
      "grade": 4672,
      "Save": 4673,
      "Ġvec": 4674,
      "Ġalgorithm": 4675,
      "connections": 4676,
      "rides": 4677,
      "ĠLOGGER": 4678,
      "concatenate": 4679,
      "DATA": 4680,
      "Ġtar": 4681,
      "silon": 4682,
      "home": 4683,
      "1000": 4684,
      "MI": 4685,
      "sect": 4686,
      "Ġcommands": 4687,
      "pages": 4688,
      "({\"": 4689,
      "flat": 4690,
      "rules": 4691,
      "Ġpredict": 4692,
      "plugins": 4693,
      "adcast": 4694,
      "failed": 4695,
      "ik": 4696,
      "arc": 4697,
      "anded": 4698,
      "calculate": 4699,
      "Uni": 4700,
      "Called": 4701,
      "rv": 4702,
      "ĉĉ": 4703,
      "Ġte": 4704,
      "anel": 4705,
      "Ġactor": 4706,
      "Ġseg": 4707,
      "ĠIN": 4708,
      "Ġoc": 4709,
      "ĠTime": 4710,
      "Ġanalysis": 4711,
      "author": 4712,
      "chars": 4713,
      "Split": 4714,
      "ĠLog": 4715,
      "Address": 4716,
      "mplementation": 4717,
      "\"%": 4718,
      "less": 4719,
      "Ġthere": 4720,
      "Ġdirect": 4721,
      "Ġprogram": 4722,
      "Ġlibrary": 4723,
      "PC": 4724,
      "tc": 4725,
      "prompt": 4726,
      "packages": 4727,
      "NG": 4728,
      "bg": 4729,
      "decorator": 4730,
      "analysis": 4731,
      "Ġsimple": 4732,
      "tables": 4733,
      "splitext": 4734,
      "gamma": 4735,
      "lector": 4736,
      "Ġpred": 4737,
      "super": 4738,
      "ĊĠĠĠĠĠĠĠĠĠĠĠĠĠĠĠĠĠĠĠĠĠĠĠĠĠĠĠĠĠĠĠĠĠĠĠĠĠĠĠĠĠĠĠĠĠ": 4739,
      "(__": 4740,
      "ASE": 4741,
      "Work": 4742,
      "XT": 4743,
      "processing": 4744,
      "reply": 4745,
      "\"}": 4746,
      "schedule": 4747,
      "else": 4748,
      "descriptor": 4749,
      "TED": 4750,
      "34": 4751,
      "ND": 4752,
      "Ġbegin": 4753,
      "Ġregistry": 4754,
      "Core": 4755,
      "PUT": 4756,
      "Ġrg": 4757,
      "ĠStop": 4758,
      "Ġnotification": 4759,
      "stit": 4760,
      "Ġtail": 4761,
      "meth": 4762,
      "Ġmenu": 4763,
      "With": 4764,
      "Ġlayout": 4765,
      "peer": 4766,
      "Ġzone": 4767,
      "ĠOrderedDict": 4768,
      "reason": 4769,
      "lict": 4770,
      "voke": 4771,
      "Ġremoved": 4772,
      "ives": 4773,
      "Ġloss": 4774,
      "ĠIter": 4775,
      "Ġscores": 4776,
      "jango": 4777,
      "dispatch": 4778,
      "chan": 4779,
      "Max": 4780,
      "Ag": 4781,
      "otype": 4782,
      "services": 4783,
      "ranges": 4784,
      "marker": 4785,
      "mavlink": 4786,
      "Tensor": 4787,
      "vcf": 4788,
      "Ġmp": 4789,
      "tau": 4790,
      "Params": 4791,
      "levels": 4792,
      "topic": 4793,
      "Identi": 4794,
      "effs": 4795,
      "flux": 4796,
      "Norm": 4797,
      "Ġrepository": 4798,
      "Ġdec": 4799,
      "Ġencoder": 4800,
      "Ġkind": 4801,
      "tempt": 4802,
      "Ġadded": 4803,
      "Computes": 4804,
      "LOGGER": 4805,
      "Copy": 4806,
      "feed": 4807,
      "ront": 4808,
      "Wrapper": 4809,
      "rupt": 4810,
      "Ġexample": 4811,
      "70": 4812,
      "snapshot": 4813,
      "rad": 4814,
      "Ġbuilder": 4815,
      "}.": 4816,
      "mes": 4817,
      "cancel": 4818,
      "vol": 4819,
      "Ġstrip": 4820,
      "ste": 4821,
      "ural": 4822,
      "conver": 4823,
      "ĠNode": 4824,
      "cular": 4825,
      "Ġscan": 4826,
      "escape": 4827,
      "Ġhistory": 4828,
      "ube": 4829,
      "Decorator": 4830,
      "ane": 4831,
      "Ġdiag": 4832,
      "ĠStr": 4833,
      "timer": 4834,
      "dn": 4835,
      "Ġsteps": 4836,
      "Reads": 4837,
      "ii": 4838,
      "ulk": 4839,
      "Transform": 4840,
      "fw": 4841,
      "roles": 4842,
      "(\"_": 4843,
      "subprocess": 4844,
      "Ġsent": 4845,
      "Su": 4846,
      "roy": 4847,
      "simple": 4848,
      "Ġnormal": 4849,
      "trieves": 4850,
      "ensure": 4851,
      "Ġyour": 4852,
      "sd": 4853,
      "requests": 4854,
      "blob": 4855,
      "Ġreturned": 4856,
      "rency": 4857,
      "aliases": 4858,
      "CODE": 4859,
      "Perform": 4860,
      "ĠMessage": 4861,
      "bility": 4862,
      "Ġstrict": 4863,
      "Internal": 4864,
      "ĠUser": 4865,
      "Ġdependencies": 4866,
      "Ġissubclass": 4867,
      "AV": 4868,
      "Ġrelease": 4869,
      "Ġeval": 4870,
      "Reference": 4871,
      "Ġengine": 4872,
      "Ġgene": 4873,
      "Logger": 4874,
      "Ġlin": 4875,
      "Ġqui": 4876,
      "uter": 4877,
      "ĠDataFrame": 4878,
      "Python": 4879,
      "allowed": 4880,
      "bbox": 4881,
      "ues": 4882,
      "=\"\",": 4883,
      "Pr": 4884,
      "Ġobs": 4885,
      "terms": 4886,
      "allback": 4887,
      "question": 4888,
      ".*": 4889,
      "sequences": 4890,
      "energy": 4891,
      "rowser": 4892,
      "vectors": 4893,
      ")}": 4894,
      "wt": 4895,
      "ffff": 4896,
      "Ġdefaults": 4897,
      "Ġroute": 4898,
      "Ġsupp": 4899,
      "Control": 4900,
      "getter": 4901,
      "timedelta": 4902,
      "https": 4903,
      "Ġattach": 4904,
      "Parses": 4905,
      "Ġnested": 4906,
      "Syn": 4907,
      "ression": 4908,
      "decoder": 4909,
      "Ġcore": 4910,
      "Ġvocab": 4911,
      "...,": 4912,
      "Server": 4913,
      "Ġchanges": 4914,
      "segments": 4915,
      "anz": 4916,
      "peak": 4917,
      "sired": 4918,
      "Ġproc": 4919,
      "signed": 4920,
      "ization": 4921,
      "diffe": 4922,
      "LL": 4923,
      "nu": 4924,
      "Ġ^": 4925,
      "stmt": 4926,
      "Ġwx": 4927,
      "linear": 4928,
      "Ġitertools": 4929,
      "Generates": 4930,
      "EV": 4931,
      "until": 4932,
      "cores": 4933,
      "Ġ(-": 4934,
      "Ġ200": 4935,
      "selector": 4936,
      "tivity": 4937,
      "ture": 4938,
      "unset": 4939,
      "adj": 4940,
      "acity": 4941,
      "Select": 4942,
      "cheduler": 4943,
      "Ġrepr": 4944,
      "rstrip": 4945,
      "Ġsender": 4946,
      "Ġgrad": 4947,
      "frequency": 4948,
      "osition": 4949,
      "Width": 4950,
      "Ġfun": 4951,
      "Ġqueryset": 4952,
      "AX": 4953,
      "alive": 4954,
      "ftime": 4955,
      "Ġpt": 4956,
      "Ġans": 4957,
      "previous": 4958,
      "Results": 4959,
      "Button": 4960,
      "HT": 4961,
      "ide": 4962,
      "sites": 4963,
      "Ġmost": 4964,
      "lapsed": 4965,
      "Execute": 4966,
      "Ġcharacter": 4967,
      "export": 4968,
      "Ġord": 4969,
      "cells": 4970,
      "tt": 4971,
      "redis": 4972,
      "eries": 4973,
      "Ġfs": 4974,
      "FIX": 4975,
      "Back": 4976,
      "PS": 4977,
      "lang": 4978,
      "ĊĠĠĠĠĠĠĠĠĠĠĠĠĠĠĠĠĠĠĠĠĠĠĠĠĠĠĠĠĠĠĠĠĠĠĠĠĠĠĠĠĠĠĠĠĠĠ": 4979,
      "Ġwrit": 4980,
      "Ġpresent": 4981,
      "Ġrequested": 4982,
      "Ġregistered": 4983,
      "PIPE": 4984,
      "otential": 4985,
      "ĠCol": 4986,
      "archy": 4987,
      "coming": 4988,
      "Flow": 4989,
      "PA": 4990,
      "Ġflatten": 4991,
      "Ġexport": 4992,
      "entic": 4993,
      "olds": 4994,
      "scape": 4995,
      "84": 4996,
      "GB": 4997,
      "ied": 4998,
      "adjust": 4999,
      "Ġmut": 5000,
      "Ġchannels": 5001,
      "Ġcredentials": 5002,
      "wner": 5003,
      "abili": 5004,
      "}:": 5005,
      "stract": 5006,
      "enable": 5007,
      "Ġev": 5008,
      "regions": 5009,
      "Does": 5010,
      "Ġmass": 5011,
      "ĊĠĠĠĠĠĠĠĠĠĠĠĠĠĠĠĠĠĠĠĠĠĠĠĠĠĠĠĠĠĠĠĠĠĠĠĠĠĠĠĠĠĠĠĠĠĠĠ": 5012,
      "Ġcalc": 5013,
      "MODE": 5014,
      "Length": 5015,
      "36": 5016,
      "big": 5017,
      "Ġ{},": 5018,
      "ighted": 5019,
      "Ġblocks": 5020,
      "plus": 5021,
      "Funce": 5022,
      "decl": 5023,
      "derer": 5024,
      "Ġsn": 5025,
      "Ġsets": 5026,
      "Ġstatement": 5027,
      "Funceble": 5028,
      "Off": 5029,
      "Ġlists": 5030,
      "ĠCom": 5031,
      "[::-": 5032,
      "ampler": 5033,
      "ĊĊĠĠĠĠĠĠĠĠĊĠĠĠĠĠĠĠĠĊĠĠĠĠĠĠĠĠĊĠĠĠĠĠĠĠ": 5034,
      "))]": 5035,
      "endar": 5036,
      "Ġbackground": 5037,
      "Ġphase": 5038,
      "Apply": 5039,
      "rgb": 5040,
      "abilities": 5041,
      "Ġcv": 5042,
      "Ġasset": 5043,
      "Ġcontract": 5044,
      "Ġfw": 5045,
      "Ġfactory": 5046,
      "Ġedit": 5047,
      "constraints": 5048,
      "Ġexpand": 5049,
      "Ġaff": 5050,
      "LAGS": 5051,
      "Ġbutton": 5052,
      "machine": 5053,
      "Ġoptimi": 5054,
      "cursively": 5055,
      "Task": 5056,
      "lier": 5057,
      "Property": 5058,
      "Ġfilenames": 5059,
      "Ġtool": 5060,
      "serve": 5061,
      "makedirs": 5062,
      "Ġprecision": 5063,
      "Page": 5064,
      "ifier": 5065,
      "ĠName": 5066,
      "Ġusers": 5067,
      "Ġepoch": 5068,
      "uess": 5069,
      "pology": 5070,
      "encoded": 5071,
      "atible": 5072,
      ":],": 5073,
      "mul": 5074,
      "rpc": 5075,
      "Ġfore": 5076,
      "Retrieves": 5077,
      "created": 5078,
      "77": 5079,
      "BO": 5080,
      "CP": 5081,
      "Ġflat": 5082,
      "Tuple": 5083,
      "Ġloader": 5084,
      "Ġ32": 5085,
      "NE": 5086,
      "chrom": 5087,
      "Ġagain": 5088,
      "car": 5089,
      "entropy": 5090,
      "ĊĉĊ": 5091,
      "sender": 5092,
      "uffle": 5093,
      "js": 5094,
      "lies": 5095,
      "Ġresolve": 5096,
      "dates": 5097,
      "gradi": 5098,
      "Ġconnected": 5099,
      "FIELD": 5100,
      "Ġoccur": 5101,
      "gits": 5102,
      "ould": 5103,
      "iso": 5104,
      "Dele": 5105,
      ":\")": 5106,
      "ka": 5107,
      "Ġcast": 5108,
      "defined": 5109,
      "dictionary": 5110,
      "05": 5111,
      "lis": 5112,
      "quali": 5113,
      "usage": 5114,
      "35": 5115,
      "96": 5116,
      "Matrix": 5117,
      "tw": 5118,
      "objective": 5119,
      "ONE": 5120,
      "Ġupdated": 5121,
      "annotation": 5122,
      "Layer": 5123,
      "()).": 5124,
      "upload": 5125,
      "Ġvia": 5126,
      "Be": 5127,
      "Module": 5128,
      "Ġbar": 5129,
      "Ġdigest": 5130,
      "Ġenable": 5131,
      "Enabled": 5132,
      "neighbors": 5133,
      "(\",": 5134,
      "keyword": 5135,
      "listdir": 5136,
      "Ġlst": 5137,
      "Construct": 5138,
      "Ġsensor": 5139,
      "Cell": 5140,
      "PY": 5141,
      "Test": 5142,
      "Variable": 5143,
      "ric": 5144,
      "Ġdisk": 5145,
      "Ġoutfile": 5146,
      "Close": 5147,
      "Ġsources": 5148,
      "Ġwriter": 5149,
      "sparse": 5150,
      "Ġvertex": 5151,
      "Ġbottom": 5152,
      "Ġmaster": 5153,
      "sheet": 5154,
      "java": 5155,
      "callable": 5156,
      "maps": 5157,
      "Determine": 5158,
      "Sequence": 5159,
      "[...,": 5160,
      "Ġremaining": 5161,
      "ilds": 5162,
      "Ġdisc": 5163,
      "Ġbytearray": 5164,
      "Print": 5165,
      "sterior": 5166,
      "Ġarrays": 5167,
      "circ": 5168,
      "omial": 5169,
      "boot": 5170,
      "Api": 5171,
      "CI": 5172,
      "Now": 5173,
      "correct": 5174,
      "nonzero": 5175,
      "Cells": 5176,
      "Ġdecor": 5177,
      "strftime": 5178,
      "Ġmatched": 5179,
      "amera": 5180,
      "Ġclip": 5181,
      "loor": 5182,
      "Ġmapp": 5183,
      "Ġbg": 5184,
      "Ġsep": 5185,
      "tainer": 5186,
      "ĠStopIteration": 5187,
      "Ġfh": 5188,
      "]=": 5189,
      "xx": 5190,
      "Ġpandas": 5191,
      "contract": 5192,
      "intervals": 5193,
      "quival": 5194,
      "gregate": 5195,
      "icon": 5196,
      "onical": 5197,
      "endent": 5198,
      "Ġbbox": 5199,
      "versions": 5200,
      "MENT": 5201,
      "callbacks": 5202,
      "Ġclone": 5203,
      "Ġredirect": 5204,
      "Ġconv": 5205,
      "positions": 5206,
      "ĠOper": 5207,
      "nor": 5208,
      "()}": 5209,
      "rag": 5210,
      "Ġ\"<": 5211,
      "Parti": 5212,
      "mediate": 5213,
      "anza": 5214,
      "Ġsec": 5215,
      "Ġformatted": 5216,
      "Ġpickle": 5217,
      "ADER": 5218,
      "DIR": 5219,
      "WS": 5220,
      "pin": 5221,
      "Ġaut": 5222,
      "Ġ\":": 5223,
      "orization": 5224,
      "DR": 5225,
      "arrays": 5226,
      "Ġtrack": 5227,
      "Ġmarker": 5228,
      "sistent": 5229,
      "ceil": 5230,
      "Ġmx": 5231,
      "parents": 5232,
      "Ġnumbers": 5233,
      "Bytes": 5234,
      "pts": 5235,
      "digit": 5236,
      "Resource": 5237,
      "ACE": 5238,
      "Ġplan": 5239,
      "trip": 5240,
      "Ġlang": 5241,
      "price": 5242,
      "Ġpeer": 5243,
      "Argument": 5244,
      "85": 5245,
      "_[": 5246,
      "Parameter": 5247,
      "credentials": 5248,
      "aussian": 5249,
      "initialized": 5250,
      "ordinate": 5251,
      "recv": 5252,
      "Ġreceived": 5253,
      ")+": 5254,
      ")],": 5255,
      "fft": 5256,
      "Ġklass": 5257,
      "need": 5258,
      "Ġls": 5259,
      "ĠPath": 5260,
      "Ġtopic": 5261,
      "Ġexecution": 5262,
      "Callback": 5263,
      "OS": 5264,
      "fc": 5265,
      "atoms": 5266,
      "Names": 5267,
      "notify": 5268,
      "*.": 5269,
      "Ġstandard": 5270,
      "optional": 5271,
      "Ġsegments": 5272,
      "maximum": 5273,
      "locked": 5274,
      "square": 5275,
      "Ġtorch": 5276,
      "Ġtick": 5277,
      "Ġput": 5278,
      "ctypes": 5279,
      "intersection": 5280,
      "serializer": 5281,
      "ia": 5282,
      "Ġinplace": 5283,
      "processor": 5284,
      "Ġnoise": 5285,
      "constant": 5286,
      "Clo": 5287,
      "priority": 5288,
      "nr": 5289,
      "orary": 5290,
      "tick": 5291,
      "cipi": 5292,
      "likelihood": 5293,
      "95": 5294,
      "UID": 5295,
      "Ġcli": 5296,
      "geometry": 5297,
      "Schema": 5298,
      "Ġpl": 5299,
      "Ġdev": 5300,
      "perm": 5301,
      "minimum": 5302,
      "many": 5303,
      "ha": 5304,
      "wards": 5305,
      "Ġhidden": 5306,
      "categories": 5307,
      "Ġorg": 5308,
      "Ġuid": 5309,
      "omatic": 5310,
      "Ġcurrently": 5311,
      "Ġforward": 5312,
      "tempts": 5313,
      "ORT": 5314,
      "Ġsupport": 5315,
      "finished": 5316,
      "Ġcsv": 5317,
      "Ġuuid": 5318,
      "Show": 5319,
      "====": 5320,
      "eze": 5321,
      "hparam": 5322,
      "redirect": 5323,
      "ravel": 5324,
      "console": 5325,
      "\"]))": 5326,
      "Unable": 5327,
      "cod": 5328,
      "ational": 5329,
      "Ġratio": 5330,
      "Ġasync": 5331,
      "serial": 5332,
      "Ġinstead": 5333,
      "ĠOption": 5334,
      "MIN": 5335,
      "Ġche": 5336,
      "Ġunpack": 5337,
      "IS": 5338,
      "rdf": 5339,
      "Ġscreen": 5340,
      "Ġreason": 5341,
      "Ġour": 5342,
      "ĠImage": 5343,
      "Ġvalidation": 5344,
      "Ġbins": 5345,
      "ĠSy": 5346,
      "Ali": 5347,
      "lec": 5348,
      "Ġhandlers": 5349,
      "Ġabsolute": 5350,
      "Ġrules": 5351,
      "centi": 5352,
      "eral": 5353,
      "queeze": 5354,
      "lify": 5355,
      "Ġoptional": 5356,
      "INFO": 5357,
      "ATTR": 5358,
      "Ġprior": 5359,
      "Ġtraceback": 5360,
      "Ġdays": 5361,
      "200": 5362,
      "Ġspa": 5363,
      "Ġcollect": 5364,
      "integr": 5365,
      "named": 5366,
      "percent": 5367,
      "usion": 5368,
      "caller": 5369,
      "Ġtransition": 5370,
      "Ġmerged": 5371,
      ":,": 5372,
      "istic": 5373,
      "Ġmac": 5374,
      "gnitude": 5375,
      "cutoff": 5376,
      "Var": 5377,
      "ĠAs": 5378,
      "Import": 5379,
      "Render": 5380,
      "sr": 5381,
      "uses": 5382,
      "Ġsl": 5383,
      "tour": 5384,
      "errno": 5385,
      "Ġupload": 5386,
      "canvas": 5387,
      "Bit": 5388,
      "Ġrelated": 5389,
      ")\",": 5390,
      "oly": 5391,
      "Ġgithub": 5392,
      "\"]],": 5393,
      "isters": 5394,
      "grams": 5395,
      "fixed": 5396,
      "cryption": 5397,
      "patterns": 5398,
      "CTION": 5399,
      "New": 5400,
      "ral": 5401,
      "vc": 5402,
      "xim": 5403,
      "}\",": 5404,
      "devices": 5405,
      "six": 5406,
      "ways": 5407,
      "Factory": 5408,
      "Ġarchive": 5409,
      "repository": 5410,
      "visible": 5411,
      "Ġstarting": 5412,
      "Ġsalt": 5413,
      "quote": 5414,
      "Ġdetails": 5415,
      "Ġpositions": 5416,
      "Ġdefaultdict": 5417,
      "controller": 5418,
      "Draw": 5419,
      "cross": 5420,
      "ĊĊĠĠĠĠĠĠĠĠĊĊĠĠĠĠĠĠĠ": 5421,
      "Ġtables": 5422,
      "ĠError": 5423,
      "deps": 5424,
      "Ġreturning": 5425,
      "nested": 5426,
      "MAP": 5427,
      "Location": 5428,
      "}\\": 5429,
      "Ġknown": 5430,
      "locals": 5431,
      "čĊĠĠĠĠčĊĠĠĠ": 5432,
      "755": 5433,
      "Try": 5434,
      "analy": 5435,
      "Ġwalk": 5436,
      "Ġmeasure": 5437,
      "Ġcalls": 5438,
      "watch": 5439,
      "ĠĊĠĠĠĠĠĠĠĠĠĠĠĠĠĠĠ": 5440,
      "Ġlayers": 5441,
      "library": 5442,
      "ĊĠĠĠĠĊĠĠĠĠĊĠĠĠĠĊĠĠĠĠĊĠĠĠ": 5443,
      "Ġsnapshot": 5444,
      "external": 5445,
      "tives": 5446,
      "Ġcandidates": 5447,
      "atype": 5448,
      "Ġleast": 5449,
      "Ġordered": 5450,
      "distribution": 5451,
      "transition": 5452,
      "Ġpipeline": 5453,
      "WN": 5454,
      "gz": 5455,
      "pus": 5456,
      "}{": 5457,
      "onal": 5458,
      "Ġintegr": 5459,
      "ges": 5460,
      "qubits": 5461,
      "ĠTo": 5462,
      "Types": 5463,
      "Ġinterpol": 5464,
      "Ġperm": 5465,
      "shell": 5466,
      ").__": 5467,
      "Ne": 5468,
      "chat": 5469,
      "ĊĠĠĠĠĠĠĠĠĠĠĠĠĠĠĠĠĠĠĠĠĊĠĠĠĠĠĠĠĠĠĠĠĠĠĠĠĠĠĠĠĠĊĠĠĠĠĠĠĠĠĠĠĠĠĠĠĠĠĠĠĠ": 5470,
      "Ġmodules": 5471,
      "Edit": 5472,
      "Ġembed": 5473,
      "rase": 5474,
      "chr": 5475,
      "listen": 5476,
      "Ġneeded": 5477,
      "fastq": 5478,
      "ĠState": 5479,
      "band": 5480,
      "otes": 5481,
      "sive": 5482,
      "čĊĠĠĠĠĠĠĠĠĊĠĠĠĠĠĠĠ": 5483,
      "environment": 5484,
      "Rece": 5485,
      "tract": 5486,
      "Ġadj": 5487,
      "Ġcert": 5488,
      "ordered": 5489,
      "Ġ])": 5490,
      "Ġnd": 5491,
      "oto": 5492,
      "Ġadditional": 5493,
      "Ġtyping": 5494,
      ":\",": 5495,
      "]-": 5496,
      "rev": 5497,
      "Ġcpu": 5498,
      "trigger": 5499,
      "Ġtimezone": 5500,
      "ouble": 5501,
      "activity": 5502,
      "Ġannotation": 5503,
      "github": 5504,
      "Ġstmt": 5505,
      "Reader": 5506,
      "most": 5507,
      "Ġpercent": 5508,
      "poll": 5509,
      "publish": 5510,
      "Ġreversed": 5511,
      "Ġnormalized": 5512,
      "74": 5513,
      "GR": 5514,
      "}\")": 5515,
      "related": 5516,
      "Ġsentence": 5517,
      "CESS": 5518,
      "ĠUni": 5519,
      "instr": 5520,
      "Hash": 5521,
      "props": 5522,
      "Ġcells": 5523,
      "ategy": 5524,
      "unic": 5525,
      "ĠTuple": 5526,
      "Exist": 5527,
      "ĠGraph": 5528,
      "ĠPyFunceble": 5529,
      "Life": 5530,
      "_):": 5531,
      "Ġrs": 5532,
      "appro": 5533,
      "Ġoverwrite": 5534,
      "Timeout": 5535,
      "Sample": 5536,
      "reads": 5537,
      "media": 5538,
      "28": 5539,
      "Queue": 5540,
      "tor": 5541,
      "Ġ24": 5542,
      "ĠCal": 5543,
      "STATE": 5544,
      "Ġneeds": 5545,
      "ĠComp": 5546,
      "Ġmodified": 5547,
      "rb": 5548,
      "Ġxy": 5549,
      "symbols": 5550,
      "Metadata": 5551,
      ":\\": 5552,
      "AF": 5553,
      "mar": 5554,
      "erce": 5555,
      "Ġbed": 5556,
      "tein": 5557,
      "\"{": 5558,
      "phab": 5559,
      "ĠField": 5560,
      "findall": 5561,
      "hosts": 5562,
      "union": 5563,
      "collect": 5564,
      "Generator": 5565,
      "(\".\")": 5566,
      "Ġxs": 5567,
      "Ġenti": 5568,
      "ĠModel": 5569,
      "READ": 5570,
      "angles": 5571,
      "uniform": 5572,
      "Ġtraining": 5573,
      "dropout": 5574,
      "Ġsurface": 5575,
      "\"]]": 5576,
      "Exp": 5577,
      "cloud": 5578,
      "Initialize": 5579,
      "Cre": 5580,
      "bundle": 5581,
      "rd": 5582,
      "lour": 5583,
      "Ġpackages": 5584,
      "Merge": 5585,
      "means": 5586,
      "sical": 5587,
      "Keys": 5588,
      "Collection": 5589,
      "gapic": 5590,
      "Ġdifferent": 5591,
      "tar": 5592,
      "ye": 5593,
      "Ġowner": 5594,
      "interpol": 5595,
      "primary": 5596,
      "Ġframes": 5597,
      "Ġdimensions": 5598,
      "tid": 5599,
      "...\")": 5600,
      "OF": 5601,
      "Stop": 5602,
      "Ġmachine": 5603,
      "bosity": 5604,
      "limiter": 5605,
      "FORMAT": 5606,
      "platform": 5607,
      "istration": 5608,
      "Ġfixed": 5609,
      "'''": 5610,
      "remaining": 5611,
      "Ġboth": 5612,
      "accept": 5613,
      "unknown": 5614,
      "docs": 5615,
      "complex": 5616,
      "ĠIterable": 5617,
      "Fetch": 5618,
      "JSON": 5619,
      "Wait": 5620,
      "Ġproblem": 5621,
      "čĊčĊĠĠĠ": 5622,
      "Ġtc": 5623,
      "ĊĠĠĠĠĠĠĠĠĠĠĠĠĊĠĠĠĠĠĠĠ": 5624,
      "arest": 5625,
      "impl": 5626,
      "ring": 5627,
      "ttp": 5628,
      "ĊĊĠĠĠĠĠĠĠĠĠĠĠĠĊĠĠĠĠĠĠĠĠĠĠĠĠĊĠĠĠĠĠĠĠĠĠĠĠ": 5629,
      "cluding": 5630,
      "dimensions": 5631,
      "absolute": 5632,
      "degree": 5633,
      "ons": 5634,
      "Ġsaved": 5635,
      "inger": 5636,
      "masked": 5637,
      "VAR": 5638,
      "imple": 5639,
      "slug": 5640,
      "ticks": 5641,
      "ĠĠĠĠĠĠĠĠĠĠĠĠĠĠĠĠĠĠĠĠĠĠĠĠĠĠĠĠĠĠĠĠ": 5642,
      "Ġsuch": 5643,
      "Ġ},": 5644,
      "QUE": 5645,
      "ilarity": 5646,
      "ValidationError": 5647,
      "78": 5648,
      "ense": 5649,
      "Ġprepare": 5650,
      "Ġinstalled": 5651,
      "radient": 5652,
      "Order": 5653,
      "NING": 5654,
      "Speci": 5655,
      "_=": 5656,
      "ĠTrans": 5657,
      "Ġruntime": 5658,
      "NOT": 5659,
      "Mark": 5660,
      "ula": 5661,
      "measure": 5662,
      "sentence": 5663,
      "Ġlinear": 5664,
      "transfer": 5665,
      "Rep": 5666,
      "logits": 5667,
      "workflow": 5668,
      "executable": 5669,
      "ongo": 5670,
      "speed": 5671,
      "VERSION": 5672,
      "adapter": 5673,
      "Ġexperiment": 5674,
      "7554": 5675,
      "DATE": 5676,
      "antity": 5677,
      "Ġexternal": 5678,
      "Ġcost": 5679,
      "Ġprocessed": 5680,
      "eLife": 5681,
      "Ġsync": 5682,
      "Ġparents": 5683,
      "objs": 5684,
      "backup": 5685,
      "alizes": 5686,
      "USER": 5687,
      "pipeline": 5688,
      "Takes": 5689,
      "blems": 5690,
      "outine": 5691,
      "Ġ20": 5692,
      "clusters": 5693,
      "cnt": 5694,
      "ĊĊĠĠĠĠĊĠĠĠĠĊĠĠĠĠĊĠĠĠ": 5695,
      "Ġcycle": 5696,
      "eta": 5697,
      "mbo": 5698,
      "STAT": 5699,
      "Ġchecks": 5700,
      "Ġservices": 5701,
      "CF": 5702,
      "Ġms": 5703,
      "anner": 5704,
      "filtered": 5705,
      "Move": 5706,
      "switch": 5707,
      "presence": 5708,
      "cri": 5709,
      "newaxis": 5710,
      "Ġauthor": 5711,
      "Ġoverride": 5712,
      "Ġrefresh": 5713,
      "radians": 5714,
      "VALID": 5715,
      "255": 5716,
      "heads": 5717,
      "orizont": 5718,
      "Font": 5719,
      "aw": 5720,
      "kit": 5721,
      "erance": 5722,
      "Ġener": 5723,
      "Ġsqu": 5724,
      "construct": 5725,
      "Ġmembers": 5726,
      "tyle": 5727,
      "clone": 5728,
      "WAR": 5729,
      "Ġjobs": 5730,
      "ranches": 5731,
      "))))": 5732,
      "Ġexpect": 5733,
      "Inst": 5734,
      "Changed": 5735,
      "aut": 5736,
      "zation": 5737,
      "generic": 5738,
      "/\"": 5739,
      "mtime": 5740,
      "uring": 5741,
      "ummy": 5742,
      "Ġtimedelta": 5743,
      "ART": 5744,
      "randint": 5745,
      "Port": 5746,
      "ĠReturns": 5747,
      "buff": 5748,
      "annotations": 5749,
      "Ġmany": 5750,
      "dicator": 5751,
      "Ġcatalog": 5752,
      "existing": 5753,
      "Double": 5754,
      "extensions": 5755,
      "ĠPer": 5756,
      "(%": 5757,
      "65": 5758,
      "repeat": 5759,
      "listener": 5760,
      "tage": 5761,
      "Ġdetect": 5762,
      "problem": 5763,
      "Ġsecret": 5764,
      "Ġidentity": 5765,
      "Ġgoogle": 5766,
      "Active": 5767,
      "dp": 5768,
      "Ġplain": 5769,
      "lash": 5770,
      "background": 5771,
      "soft": 5772,
      "rp": 5773,
      "Ġiteration": 5774,
      "Ġlinks": 5775,
      "tzinfo": 5776,
      "Dep": 5777,
      "bad": 5778,
      "cv": 5779,
      "Ġ],": 5780,
      "Ġsubset": 5781,
      "Ġpriority": 5782,
      "Modi": 5783,
      "difference": 5784,
      "Ġgre": 5785,
      "Ġderiv": 5786,
      "Ġkmip": 5787,
      "TEXT": 5788,
      "Loads": 5789,
      "fully": 5790,
      "dag": 5791,
      "Ġtau": 5792,
      "learning": 5793,
      "__))": 5794,
      "Ġvertices": 5795,
      "Ġsessions": 5796,
      "hexdigest": 5797,
      "ientation": 5798,
      "same": 5799,
      "coordinates": 5800,
      "readline": 5801,
      "workers": 5802,
      "Decode": 5803,
      "gg": 5804,
      "saved": 5805,
      "Ġcc": 5806,
      "Ġinside": 5807,
      "Ġsur": 5808,
      "Ġschedule": 5809,
      "(\"<": 5810,
      "ĠSh": 5811,
      "Ġbuff": 5812,
      "Only": 5813,
      "major": 5814,
      "Ġglyph": 5815,
      "validation": 5816,
      "acc": 5817,
      "Ġsha": 5818,
      "ROM": 5819,
      "functools": 5820,
      "Access": 5821,
      "Clear": 5822,
      "Cache": 5823,
      "Ġstatic": 5824,
      "509": 5825,
      "Fin": 5826,
      "Multi": 5827,
      "sto": 5828,
      "Ġpower": 5829,
      "outer": 5830,
      "Ġsee": 5831,
      "erson": 5832,
      "Ġzoom": 5833,
      "warnings": 5834,
      "lank": 5835,
      "Pass": 5836,
      "Ġfree": 5837,
      "unts": 5838,
      "mapper": 5839,
      "Ġprimary": 5840,
      "hooks": 5841,
      "]\")": 5842,
      "ece": 5843,
      "lar": 5844,
      "ume": 5845,
      "Ġsequences": 5846,
      "Ġtuples": 5847,
      "HEADER": 5848,
      "attrib": 5849,
      "Ġobjective": 5850,
      "...": 5851,
      "Meta": 5852,
      "species": 5853,
      "SA": 5854,
      "micro": 5855,
      "Ġaverage": 5856,
      "Ġevalu": 5857,
      "updated": 5858,
      "CRE": 5859,
      "ticle": 5860,
      "tack": 5861,
      "timezone": 5862,
      "wrapped": 5863,
      "locations": 5864,
      "Ġtrigger": 5865,
      "requencies": 5866,
      "((\"": 5867,
      "Gui": 5868,
      "Ġdescriptor": 5869,
      "([(": 5870,
      "ULL": 5871,
      "Ġhow": 5872,
      "ĊĠĠĊĠĠĊĠ": 5873,
      "floor": 5874,
      "att": 5875,
      "ename": 5876,
      "shared": 5877,
      "clusive": 5878,
      "DEBUG": 5879,
      "Ġrequires": 5880,
      "plain": 5881,
      "world": 5882,
      "cepts": 5883,
      "okies": 5884,
      "Ġworking": 5885,
      "logs": 5886,
      "ĠCON": 5887,
      "translate": 5888,
      "tuples": 5889,
      "Shape": 5890,
      "Document": 5891,
      "DD": 5892,
      "Ġps": 5893,
      "Ġconsole": 5894,
      "scene": 5895,
      "compat": 5896,
      "avg": 5897,
      "ĠWe": 5898,
      "Sum": 5899,
      "wb": 5900,
      "Ġreferences": 5901,
      "Ġsq": 5902,
      "Ġ[-": 5903,
      "Ġrouting": 5904,
      "tences": 5905,
      "disconnect": 5906,
      "google": 5907,
      "priate": 5908,
      "override": 5909,
      "sessment": 5910,
      "centile": 5911,
      ")\")": 5912,
      "glyph": 5913,
      "Ġcoeffici": 5914,
      "ORY": 5915,
      "Display": 5916,
      "HO": 5917,
      "TA": 5918,
      "Ġnx": 5919,
      "Ġang": 5920,
      "Ġchoices": 5921,
      "Ġlogin": 5922,
      "sensor": 5923,
      "Ġhashlib": 5924,
      "video": 5925,
      "Ġscalar": 5926,
      "Ġagainst": 5927,
      "deo": 5928,
      "cookie": 5929,
      "Ġvol": 5930,
      "Ġloaded": 5931,
      "Template": 5932,
      "Spec": 5933,
      "Ġ~": 5934,
      "cessary": 5935,
      "Ġcalcul": 5936,
      "Ġdependency": 5937,
      "Ġoverlap": 5938,
      "Channel": 5939,
      "Ġrotation": 5940,
      "candidates": 5941,
      "Ġcipher": 5942,
      "orizontal": 5943,
      "probs": 5944,
      "Ġmem": 5945,
      "Ġvalidator": 5946,
      "System": 5947,
      "mer": 5948,
      "ĠĠĊĊĠĠĠĠĠĠĠ": 5949,
      "inc": 5950,
      "aniti": 5951,
      "idxs": 5952,
      "Current": 5953,
      "98": 5954,
      "eq": 5955,
      "Ġct": 5956,
      "uman": 5957,
      "Ġlook": 5958,
      "ĠHT": 5959,
      "Directory": 5960,
      "LOCK": 5961,
      "Ġvars": 5962,
      "Ge": 5963,
      "hp": 5964,
      "vtk": 5965,
      "acquire": 5966,
      "Ġpredicate": 5967,
      "pose": 5968,
      "Ġfragment": 5969,
      "Ġsince": 5970,
      "94": 5971,
      "Mapping": 5972,
      "Ġpur": 5973,
      "choices": 5974,
      "Ġops": 5975,
      "mainder": 5976,
      "mutation": 5977,
      "Ġappropriate": 5978,
      "atched": 5979,
      "Ġsure": 5980,
      "tolist": 5981,
      "Ġcookie": 5982,
      "Ġdoesn": 5983,
      "Ġbias": 5984,
      "LS": 5985,
      "Next": 5986,
      "squeeze": 5987,
      "mitive": 5988,
      "checks": 5989,
      "AUT": 5990,
      "ero": 5991,
      "least": 5992,
      "sian": 5993,
      "Ġgate": 5994,
      "Ġdirs": 5995,
      "Ġparallel": 5996,
      "using": 5997,
      "eps": 5998,
      "servers": 5999,
      "disable": 6000,
      "precision": 6001,
      "cipant": 6002,
      "Assign": 6003,
      "border": 6004,
      "Ġinstr": 6005,
      "offsets": 6006,
      "Ġscene": 6007,
      "traceback": 6008,
      ")\\": 6009,
      "Ġsat": 6010,
      "dfs": 6011,
      "manifest": 6012,
      "ĠCallable": 6013,
      "26": 6014,
      "click": 6015,
      "qd": 6016,
      "ips": 6017,
      "quivalent": 6018,
      "Pub": 6019,
      "bra": 6020,
      "Ġbc": 6021,
      "take": 6022,
      "predicate": 6023,
      "Ġswitch": 6024,
      "uer": 6025,
      "ysical": 6026,
      "NotExist": 6027,
      "Ġdisable": 6028,
      "URE": 6029,
      "rx": 6030,
      "geo": 6031,
      "live": 6032,
      "Ġmi": 6033,
      "ACT": 6034,
      "Ġpatterns": 6035,
      "Ġsupplied": 6036,
      "38": 6037,
      "Batch": 6038,
      "EM": 6039,
      "ĊĠĠĠĠĠĠĠĠĊĠĠĠĠĠĠĠĠĊĊĠĠĠĠĠĠĠ": 6040,
      "resize": 6041,
      "Ġdeprecated": 6042,
      "Ġdialog": 6043,
      "Role": 6044,
      "average": 6045,
      "information": 6046,
      "ert": 6047,
      "Ġcp": 6048,
      "may": 6049,
      "dicts": 6050,
      "partitions": 6051,
      "Option": 6052,
      "chronous": 6053,
      "surface": 6054,
      "bases": 6055,
      "cause": 6056,
      "LETE": 6057,
      "Ġformatter": 6058,
      "alignment": 6059,
      "phabet": 6060,
      "ev": 6061,
      "ssh": 6062,
      "thresh": 6063,
      "Ġweek": 6064,
      "operations": 6065,
      "Append": 6066,
      "Ġcloud": 6067,
      "--------": 6068,
      "deriv": 6069,
      "unter": 6070,
      "Ġmultip": 6071,
      "Ġdriver": 6072,
      "conditions": 6073,
      "ism": 6074,
      "curve": 6075,
      "Ġpretty": 6076,
      "Ġalong": 6077,
      "wave": 6078,
      "execution": 6079,
      "ĠResponse": 6080,
      "sembly": 6081,
      "Float": 6082,
      "mol": 6083,
      "sur": 6084,
      "leaf": 6085,
      "ĠAr": 6086,
      "Union": 6087,
      "actual": 6088,
      "Ġrepresenting": 6089,
      "Columns": 6090,
      "58": 6091,
      "nx": 6092,
      "Ġcum": 6093,
      "splitlines": 6094,
      "ĠObject": 6095,
      "Ġintervals": 6096,
      "Ġreading": 6097,
      "Ġfrequency": 6098,
      "Ġdirectories": 6099,
      "moving": 6100,
      "Ġiteritems": 6101,
      "locity": 6102,
      "Ġcontroller": 6103,
      "GI": 6104,
      "Writes": 6105,
      "qs": 6106,
      "alloc": 6107,
      "Ġescape": 6108,
      "Ġbundle": 6109,
      "Ġvtk": 6110,
      "LED": 6111,
      "widths": 6112,
      "ĠConnection": 6113,
      "ĠString": 6114,
      "LU": 6115,
      "Like": 6116,
      "ually": 6117,
      "Ġmime": 6118,
      "TypeError": 6119,
      "Ġminutes": 6120,
      "Ġchecksum": 6121,
      "contains": 6122,
      "tems": 6123,
      "spin": 6124,
      "ĊĠĠĠĠĠĠĊĠĠĠĠĠĠ": 6125,
      "Ġthreads": 6126,
      "ECT": 6127,
      "stage": 6128,
      "Ġssl": 6129,
      "Ġconcat": 6130,
      "Ġshared": 6131,
      "tas": 6132,
      "Ġcross": 6133,
      "))[": 6134,
      "contact": 6135,
      "Ġdecoder": 6136,
      "prep": 6137,
      "cay": 6138,
      ".%": 6139,
      "Tran": 6140,
      "You": 6141,
      "ĠĠĊĊĠĠĠ": 6142,
      "security": 6143,
      "ado": 6144,
      "linspace": 6145,
      "])]": 6146,
      "Ġcoord": 6147,
      "ĠCO": 6148,
      "LECT": 6149,
      "ĊĠĠĠĠĠĠĠĠĠĠĠĠĠĠĠĠĠĠĠĠĠĠĠĠĠĠĠĠĠĠĠĠĠĠĠĠĠĠĠĠĠĠĠĠĠĠĠĠĠĠĠ": 6150,
      "Ġparticular": 6151,
      "Ġstddev": 6152,
      "native": 6153,
      "Ġfamily": 6154,
      "Ġscheme": 6155,
      "isode": 6156,
      "Ġgit": 6157,
      "ĠST": 6158,
      "Ġserial": 6159,
      "VALUE": 6160,
      "Ġaudio": 6161,
      ",\"": 6162,
      "Ġsparse": 6163,
      "fies": 6164,
      "igen": 6165,
      "curacy": 6166,
      "Struct": 6167,
      "Any": 6168,
      "FT": 6169,
      "inations": 6170,
      "Ġicon": 6171,
      "disk": 6172,
      "Ġwarning": 6173,
      "Ġchrom": 6174,
      "Ġlate": 6175,
      "Ġcurve": 6176,
      "**(": 6177,
      "Ġadjust": 6178,
      "hours": 6179,
      "requirements": 6180,
      "formatter": 6181,
      "ĠGe": 6182,
      "matching": 6183,
      "sume": 6184,
      "crypto": 6185,
      "cid": 6186,
      "Ġut": 6187,
      "Ġpending": 6188,
      "extent": 6189,
      "Ġqs": 6190,
      "Ġhostname": 6191,
      "uplicates": 6192,
      "Ġpolygon": 6193,
      ")*(": 6194,
      "fr": 6195,
      "Ġdesired": 6196,
      "riteria": 6197,
      "training": 6198,
      "CMD": 6199,
      "_:": 6200,
      "Ġtb": 6201,
      "interp": 6202,
      "fragment": 6203,
      "DoesNotExist": 6204,
      "men": 6205,
      "sb": 6206,
      "Ġimplementation": 6207,
      "Ġtimer": 6208,
      "Ġdeleted": 6209,
      "outfile": 6210,
      "queryset": 6211,
      "Ġspecify": 6212,
      "Feature": 6213,
      "](": 6214,
      "Ġfut": 6215,
      "isnan": 6216,
      "Ġtemperature": 6217,
      "Ġquad": 6218,
      "klass": 6219,
      "ĠĠĊĠĠĠĠĠĠĠĠĊĠĠĠĠĠĠĠ": 6220,
      "Ġequ": 6221,
      "ulated": 6222,
      "Ġprocessing": 6223,
      "Pool": 6224,
      "Ġtyp": 6225,
      "./": 6226,
      "gl": 6227,
      "recursive": 6228,
      "Ġupdates": 6229,
      "finite": 6230,
      "FS": 6231,
      "Tc": 6232,
      "_%": 6233,
      "xi": 6234,
      "ench": 6235,
      "Ġgl": 6236,
      "calar": 6237,
      "Ġconstraints": 6238,
      "versal": 6239,
      "enticated": 6240,
      "Has": 6241,
      "dri": 6242,
      "(\">": 6243,
      "Ġcho": 6244,
      "runner": 6245,
      "LOW": 6246,
      "audio": 6247,
      "basic": 6248,
      "Offset": 6249,
      "76": 6250,
      "Ġshard": 6251,
      ")/(": 6252,
      "pw": 6253,
      "uch": 6254,
      "Ġri": 6255,
      "coverage": 6256,
      "Ġdispatch": 6257,
      "expect": 6258,
      "formats": 6259,
      "lying": 6260,
      "Ġaccept": 6261,
      "Ġcomplex": 6262,
      "cmp": 6263,
      "lations": 6264,
      "Ġsel": 6265,
      "Ġinstruction": 6266,
      "Ġamp": 6267,
      "shutdown": 6268,
      "Ġprompt": 6269,
      "Ġenabled": 6270,
      "Ġtranslation": 6271,
      "Ġartifact": 6272,
      "Ġvectors": 6273,
      "gradient": 6274,
      "ĠHTML": 6275,
      "tesian": 6276,
      "Ġexact": 6277,
      "quad": 6278,
      "Segment": 6279,
      "Ġselector": 6280,
      "effect": 6281,
      "ancestor": 6282,
      "DA": 6283,
      "getLogger": 6284,
      "figure": 6285,
      "ĠCont": 6286,
      "Ġboolean": 6287,
      "Ġthreading": 6288,
      "blue": 6289,
      ":]:": 6290,
      "slot": 6291,
      "laps": 6292,
      "asc": 6293,
      "Ġconnections": 6294,
      "Expected": 6295,
      "Ġside": 6296,
      "weet": 6297,
      "ĠVer": 6298,
      "Ġsigned": 6299,
      "Ġclosed": 6300,
      "ĠDEFAULT": 6301,
      "umbna": 6302,
      "Flags": 6303,
      "strap": 6304,
      "Ġinverse": 6305,
      "Reset": 6306,
      "Replace": 6307,
      "ĠRequest": 6308,
      "initialize": 6309,
      "atial": 6310,
      "CLA": 6311,
      "hot": 6312,
      "orth": 6313,
      "Ġcond": 6314,
      "views": 6315,
      "Ġcalling": 6316,
      "Ġastroid": 6317,
      "={\"": 6318,
      "aris": 6319,
      "learn": 6320,
      "Ġchart": 6321,
      "ĠAdd": 6322,
      "Container": 6323,
      "Ġwhat": 6324,
      "subset": 6325,
      "Formatter": 6326,
      "assignment": 6327,
      "Pop": 6328,
      "čĊĠĠĠĠĠĠĠĠĠĠĠĠĠĠĠĠĠĠĠĠĠĠĠ": 6329,
      "urations": 6330,
      "rib": 6331,
      "Dataset": 6332,
      "normalized": 6333,
      "Ġadmin": 6334,
      "stdin": 6335,
      "plotlib": 6336,
      "Bar": 6337,
      "Mon": 6338,
      "]]:": 6339,
      "pot": 6340,
      "va": 6341,
      "Ġarch": 6342,
      "Ġnu": 6343,
      "keywords": 6344,
      "Ġanaly": 6345,
      "Ġjust": 6346,
      "Ġspecification": 6347,
      "xyz": 6348,
      "termines": 6349,
      "Options": 6350,
      "CHE": 6351,
      "binding": 6352,
      "PREFIX": 6353,
      ">\"": 6354,
      "Finds": 6355,
      "cepted": 6356,
      "registered": 6357,
      "Ġperform": 6358,
      "Ġvirtual": 6359,
      "Download": 6360,
      "Ġur": 6361,
      "oring": 6362,
      "Ġslot": 6363,
      "Ġbus": 6364,
      "checkpoint": 6365,
      "beat": 6366,
      "ĊĠĠĠĠĠĠĠĠĠĠĠĠĠĠĠĠĠĠĠĠĠĠĠĠĠĠĠĠĠĠĠĠĠĠĠĠĠĠĠĠĠĠĠĠĠĠĠĠĠĠ": 6367,
      "visor": 6368,
      "lecule": 6369,
      "ĠĠĠĠĠĠĠĠĠĠĠĠ": 6370,
      "Ġpf": 6371,
      "Ġest": 6372,
      "Ġconstruct": 6373,
      "Insert": 6374,
      "lity": 6375,
      "([[": 6376,
      "STAN": 6377,
      "consts": 6378,
      "charact": 6379,
      "median": 6380,
      "ij": 6381,
      "reco": 6382,
      "Ġbp": 6383,
      "Ġlocale": 6384,
      "shapes": 6385,
      "separator": 6386,
      "Ġrgb": 6387,
      "Bind": 6388,
      "infer": 6389,
      "ony": 6390,
      "Ġturn": 6391,
      "Segments": 6392,
      "umbnail": 6393,
      "slices": 6394,
      "tb": 6395,
      "Ġdens": 6396,
      "Ġcov": 6397,
      "Ġ%(": 6398,
      "density": 6399,
      "ĠMulti": 6400,
      "mix": 6401,
      "Ġspin": 6402,
      "hier": 6403,
      "estimator": 6404,
      "NotFoundError": 6405,
      "dleware": 6406,
      "dc": 6407,
      "Ġvm": 6408,
      "Ġurllib": 6409,
      "prime": 6410,
      "Ġrand": 6411,
      "filenames": 6412,
      "TYPES": 6413,
      "Ġmonitor": 6414,
      "EXT": 6415,
      "dividual": 6416,
      ".\\": 6417,
      "Network": 6418,
      "Sk": 6419,
      "Ter": 6420,
      "Tri": 6421,
      "Ġretrieve": 6422,
      "\",\"": 6423,
      "omin": 6424,
      "Ġcompare": 6425,
      "herit": 6426,
      "broadcast": 6427,
      "+\"": 6428,
      "Bad": 6429,
      "bp": 6430,
      "multiple": 6431,
      "Ġtrip": 6432,
      "Ġplatform": 6433,
      "Ġmar": 6434,
      "except": 6435,
      "=[],": 6436,
      "Track": 6437,
      "dy": 6438,
      "Ġcm": 6439,
      "Ġdele": 6440,
      "Ġpositive": 6441,
      "Ġcreating": 6442,
      "servations": 6443,
      "QUI": 6444,
      "CR": 6445,
      "revision": 6446,
      "Ġeps": 6447,
      "Ġdevices": 6448,
      "Ġdims": 6449,
      "experiment": 6450,
      "enticate": 6451,
      "templates": 6452,
      "Ġgenerated": 6453,
      "Menu": 6454,
      "balance": 6455,
      "ables": 6456,
      "pixels": 6457,
      "Ġepsilon": 6458,
      "pg": 6459,
      "recur": 6460,
      "setting": 6461,
      "cipe": 6462,
      "Ġchat": 6463,
      "neg": 6464,
      "projects": 6465,
      "Ġconstants": 6466,
      "Grid": 6467,
      "gies": 6468,
      "lr": 6469,
      "mis": 6470,
      "Ġsleep": 6471,
      "\")[": 6472,
      "pickle": 6473,
      "scriptions": 6474,
      "Component": 6475,
      "Runs": 6476,
      "STATUS": 6477,
      "JECT": 6478,
      "Target": 6479,
      "uild": 6480,
      "riend": 6481,
      "daemon": 6482,
      "dependent": 6483,
      "rypto": 6484,
      "Ġplugins": 6485,
      "Ġcutoff": 6486,
      "jid": 6487,
      "nl": 6488,
      "restore": 6489,
      "uest": 6490,
      "argmax": 6491,
      "ĠText": 6492,
      "ĊĠĠĊĊĠ": 6493,
      "polygon": 6494,
      "failure": 6495,
      "Please": 6496,
      "aving": 6497,
      "genome": 6498,
      "Tags": 6499,
      "ĠOptionParser": 6500,
      "Ste": 6501,
      "Style": 6502,
      "tle": 6503,
      "retries": 6504,
      "Ġ\"\":": 6505,
      "\":\"": 6506,
      "ĠDB": 6507,
      "funcs": 6508,
      "Ġaround": 6509,
      "Ġserialized": 6510,
      "Ġcharacters": 6511,
      "OB": 6512,
      "Rect": 6513,
      "ience": 6514,
      "solve": 6515,
      "repos": 6516,
      "deleted": 6517,
      "Ġdefer": 6518,
      "updates": 6519,
      "rong": 6520,
      "Ġconstant": 6521,
      "Configuration": 6522,
      "Ġusage": 6523,
      "Ġeffect": 6524,
      "DU": 6525,
      "PT": 6526,
      "iro": 6527,
      "ims": 6528,
      "png": 6529,
      "working": 6530,
      "entities": 6531,
      "Ġpages": 6532,
      "Ġreplacement": 6533,
      "Ġactivation": 6534,
      "21": 6535,
      "AST": 6536,
      "Url": 6537,
      "ale": 6538,
      "Ġsol": 6539,
      "Ġlisten": 6540,
      "__:": 6541,
      "Github": 6542,
      "batches": 6543,
      "given": 6544,
      "ident": 6545,
      "sa": 6546,
      "udent": 6547,
      "Ġstage": 6548,
      "contig": 6549,
      "venience": 6550,
      "Bin": 6551,
      "mg": 6552,
      "Ġredis": 6553,
      "Ġinc": 6554,
      "Ġ\"(": 6555,
      "Ġcould": 6556,
      "processed": 6557,
      "checksum": 6558,
      "Points": 6559,
      "changes": 6560,
      "Ġinitialize": 6561,
      "fraction": 6562,
      "Missing": 6563,
      "Plot": 6564,
      "fh": 6565,
      "zz": 6566,
      "Ġsizes": 6567,
      "compressed": 6568,
      "Star": 6569,
      "Encode": 6570,
      "Ġmanifest": 6571,
      "Ġcompleted": 6572,
      "kv": 6573,
      "solver": 6574,
      "seen": 6575,
      "artifact": 6576,
      "tist": 6577,
      "Ġetree": 6578,
      "()])": 6579,
      "Ġbel": 6580,
      "Ġthey": 6581,
      "Ġencrypted": 6582,
      "Ġbeing": 6583,
      "rune": 6584,
      "monitor": 6585,
      "NotSet": 6586,
      "Layout": 6587,
      "Deletes": 6588,
      ",),": 6589,
      "Rel": 6590,
      "USE": 6591,
      "black": 6592,
      "Ġcrop": 6593,
      "ading": 6594,
      "Ġwatch": 6595,
      "Ġoperations": 6596,
      "Operation": 6597,
      "Ġenergy": 6598,
      "39": 6599,
      "Empty": 6600,
      "Plugin": 6601,
      "Ġsa": 6602,
      "lask": 6603,
      "foc": 6604,
      "Ġlogical": 6605,
      "ardware": 6606,
      "Ġworkflow": 6607,
      "Fail": 6608,
      "Buffer": 6609,
      "basis": 6610,
      "Ġgeometry": 6611,
      "hat": 6612,
      "Ġpush": 6613,
      "Ġbad": 6614,
      "currency": 6615,
      "([])": 6616,
      "mtree": 6617,
      "rouped": 6618,
      "Ġanswer": 6619,
      "SU": 6620,
      "otor": 6621,
      "ĠTag": 6622,
      "ĠClient": 6623,
      "Ġblue": 6624,
      "maybe": 6625,
      "tif": 6626,
      "Ġdl": 6627,
      "fileobj": 6628,
      "alizers": 6629,
      "ĊĠĠĠĠĠĠĠĠĠĠĠĠĠĠĠĠĠĠĠĠĠĠĠĠĠĠĠĠĠĠĠĠĠĠĠĠĠĠĠĠĠĠĠĠĠĠĠĠĠ": 6630,
      "permissions": 6631,
      "Ġtransport": 6632,
      "lished": 6633,
      "streams": 6634,
      "bove": 6635,
      "placeholder": 6636,
      "Ġtransfer": 6637,
      "Ġ})": 6638,
      "terminal": 6639,
      "ĠQtCore": 6640,
      "Ġannotations": 6641,
      "helpers": 6642,
      "BY": 6643,
      "SV": 6644,
      "mq": 6645,
      "Ġhunt": 6646,
      "Ġkeywords": 6647,
      "ĠEvent": 6648,
      "variants": 6649,
      "overlap": 6650,
      "={},": 6651,
      "MB": 6652,
      "alo": 6653,
      "Ġtxt": 6654,
      "ups": 6655,
      "Ġretval": 6656,
      "ARY": 6657,
      "Local": 6658,
      "Ġsymbols": 6659,
      "optimizer": 6660,
      "ĠCommand": 6661,
      "Ġdw": 6662,
      "ulative": 6663,
      "Ġconstraint": 6664,
      "rotation": 6665,
      "prediction": 6666,
      "GithubObject": 6667,
      "nc": 6668,
      "routing": 6669,
      "tector": 6670,
      "DEN": 6671,
      "Ġnecessary": 6672,
      "Ġ1024": 6673,
      "Application": 6674,
      "03": 6675,
      "uli": 6676,
      "Ġpin": 6677,
      "disp": 6678,
      "Ġserializer": 6679,
      "combine": 6680,
      "green": 6681,
      "yles": 6682,
      "Ġnone": 6683,
      "Ġbig": 6684,
      "Ġlistener": 6685,
      "submit": 6686,
      "LINE": 6687,
      "rete": 6688,
      "atter": 6689,
      "Ġnn": 6690,
      "Exit": 6691,
      "SSAGE": 6692,
      "UND": 6693,
      "Ġfasta": 6694,
      "Ġmedia": 6695,
      "Sup": 6696,
      "ibr": 6697,
      "det": 6698,
      "anization": 6699,
      "Ġ180": 6700,
      "Ġvs": 6701,
      "precation": 6702,
      "ĠAc": 6703,
      "Pack": 6704,
      "kill": 6705,
      "sat": 6706,
      "itation": 6707,
      "Ġmas": 6708,
      "should": 6709,
      "Ġdiv": 6710,
      "ĠPO": 6711,
      "Ġnegative": 6712,
      "Ġserialize": 6713,
      "ĠSequence": 6714,
      "Items": 6715,
      "Random": 6716,
      "inuous": 6717,
      "ocus": 6718,
      "dense": 6719,
      "Ġbook": 6720,
      "frac": 6721,
      "orized": 6722,
      "Ab": 6723,
      "Ġ(_": 6724,
      "rences": 6725,
      "cipher": 6726,
      "ĠGu": 6727,
      "references": 6728,
      "Ġsolution": 6729,
      "Ġ15": 6730,
      "Ġgap": 6731,
      "fobj": 6732,
      "Ġresponses": 6733,
      "Ġversions": 6734,
      "mkdir": 6735,
      "rename": 6736,
      "oned": 6737,
      "Ġranges": 6738,
      "RES": 6739,
      "START": 6740,
      "bsocket": 6741,
      "Ġotherwise": 6742,
      "Dist": 6743,
      "Top": 6744,
      "titem": 6745,
      "Ġss": 6746,
      "fidence": 6747,
      "Ġsecurity": 6748,
      "Ġbyref": 6749,
      "started": 6750,
      "Ġborder": 6751,
      "Ġsto": 6752,
      "processes": 6753,
      "Ġbuilt": 6754,
      "nowled": 6755,
      "Ġflux": 6756,
      "Ġrequirements": 6757,
      "XML": 6758,
      "front": 6759,
      "inverse": 6760,
      "Ġgradient": 6761,
      "Ġbaseinteger": 6762,
      "timestamps": 6763,
      "Ġpredictions": 6764,
      "27": 6765,
      "aa": 6766,
      "half": 6767,
      "ified": 6768,
      "yield": 6769,
      "itter": 6770,
      "Ġsmooth": 6771,
      "lens": 6772,
      "Ġenviron": 6773,
      "typ": 6774,
      "osite": 6775,
      "Ġleg": 6776,
      "Pi": 6777,
      "strict": 6778,
      "(\"[": 6779,
      "Ġ14": 6780,
      "Ġparsing": 6781,
      "TEMP": 6782,
      "Symbol": 6783,
      "VICE": 6784,
      "Ġhyper": 6785,
      "ĠQuery": 6786,
      "Ġdensity": 6787,
      "spark": 6788,
      "trim": 6789,
      "Ġvideo": 6790,
      "Ġcard": 6791,
      "Ġcodes": 6792,
      "sertionError": 6793,
      "NUM": 6794,
      "SK": 6795,
      "Ġage": 6796,
      "Ġband": 6797,
      "spice": 6798,
      "park": 6799,
      "prod": 6800,
      "Ġxi": 6801,
      "dential": 6802,
      "clients": 6803,
      "Ġreads": 6804,
      "ToChar": 6805,
      "Files": 6806,
      "supports": 6807,
      "td": 6808,
      "Ġrepresen": 6809,
      "ĊĠĠĠĠĠĠĠĠĠĠĠĠĠĠĠĠĊĠĠĠĠĠĠĠĠĠĠĠĠĠĠĠĠĊĠĠĠĠĠĠĠĠĠĠĠĠĠĠĠĠĊĠĠĠĠĠĠĠĠĠĠĠĠĠĠĠ": 6810,
      "Ġdataframe": 6811,
      "mmar": 6812,
      "=\"\"):": 6813,
      "ĠInter": 6814,
      "riptor": 6815,
      "specs": 6816,
      "ĠResource": 6817,
      "Ġbinding": 6818,
      "Ġffi": 6819,
      "lope": 6820,
      "mapped": 6821,
      "genes": 6822,
      "markup": 6823,
      "ĊĠĠĠĠĠĠĠĠĠĠĠĠĊĠĠĠĠĠĠĠĠĠĠĠĠĊĠĠĠĠĠĠĠĠĠĠĠĠĊĠĠĠĠĠĠĠĠĠĠĠĠ": 6824,
      "Ġprediction": 6825,
      "PP": 6826,
      "added": 6827,
      "built": 6828,
      "validator": 6829,
      "numbers": 6830,
      "hashes": 6831,
      "{})": 6832,
      "emory": 6833,
      "comments": 6834,
      "Ġpadded": 6835,
      "ja": 6836,
      "ĠTemp": 6837,
      "pay": 6838,
      "128": 6839,
      "[_": 6840,
      "laces": 6841,
      "consumer": 6842,
      "quot": 6843,
      "virtual": 6844,
      "Ġui": 6845,
      "Expr": 6846,
      "Ġunknown": 6847,
      "ĠGd": 6848,
      "Ġextensions": 6849,
      "URI": 6850,
      "CONT": 6851,
      "going": 6852,
      "Region": 6853,
      "Verify": 6854,
      "Dump": 6855,
      "HER": 6856,
      "SUB": 6857,
      "false": 6858,
      "Ġcs": 6859,
      "Ġcar": 6860,
      "Ġsections": 6861,
      "ĠSQL": 6862,
      "__[": 6863,
      "minute": 6864,
      "dependency": 6865,
      "LOC": 6866,
      "magic": 6867,
      "special": 6868,
      "Ġhistogram": 6869,
      "arison": 6870,
      "css": 6871,
      "Ġperson": 6872,
      "rices": 6873,
      "possible": 6874,
      "Ġlar": 6875,
      "latitude": 6876,
      "Comple": 6877,
      "ATED": 6878,
      "Ġclosest": 6879,
      "expanduser": 6880,
      "Align": 6881,
      "evaluate": 6882,
      "gui": 6883,
      "ription": 6884,
      "statements": 6885,
      "serialized": 6886,
      "CAC": 6887,
      "wx": 6888,
      "Ġfg": 6889,
      "Ġsites": 6890,
      "COUN": 6891,
      "seqs": 6892,
      "Ġgenome": 6893,
      "relations": 6894,
      "utcnow": 6895,
      "Ġbasic": 6896,
      "Ġdecl": 6897,
      "Ġonto": 6898,
      "omega": 6899,
      "Ġpix": 6900,
      "lapse": 6901,
      "sol": 6902,
      "coin": 6903,
      "iling": 6904,
      "Ġrc": 6905,
      "resolution": 6906,
      "ĠUse": 6907,
      ":`~": 6908,
      "Ġmapped": 6909,
      "Interface": 6910,
      "Ġneighbors": 6911,
      "Hist": 6912,
      "lstrip": 6913,
      "aration": 6914,
      "mega": 6915,
      "Ġwave": 6916,
      "constructor": 6917,
      "Ġgame": 6918,
      "Ġpointer": 6919,
      "sensitive": 6920,
      "ATOR": 6921,
      "constraint": 6922,
      "Ġaux": 6923,
      ">>": 6924,
      "between": 6925,
      "fl": 6926,
      "hint": 6927,
      "tls": 6928,
      "under": 6929,
      "pow": 6930,
      "proj": 6931,
      "Ġresolution": 6932,
      "Interrupt": 6933,
      "enums": 6934,
      "cuit": 6935,
      "focus": 6936,
      "ITE": 6937,
      "SY": 6938,
      "ggest": 6939,
      "pings": 6940,
      "Ġrevision": 6941,
      "tell": 6942,
      "\")]": 6943,
      "phrase": 6944,
      "ĠDo": 6945,
      "compound": 6946,
      "SELECT": 6947,
      "histogram": 6948,
      "void": 6949,
      ":.": 6950,
      "Root": 6951,
      "sampling": 6952,
      "into": 6953,
      "alth": 6954,
      "Ġrev": 6955,
      "Ġnull": 6956,
      "shard": 6957,
      "resid": 6958,
      "Ġattention": 6959,
      "composition": 6960,
      "itespace": 6961,
      "Ġterms": 6962,
      "Ġcertificate": 6963,
      "gc": 6964,
      "mf": 6965,
      "geom": 6966,
      "Ġ\"*": 6967,
      "Ġcontact": 6968,
      "agraph": 6969,
      "Ġsubclass": 6970,
      "Attr": 6971,
      "Consts": 6972,
      "Ġconverter": 6973,
      "Ġsmall": 6974,
      "=[\"": 6975,
      "Cap": 6976,
      "ele": 6977,
      "vance": 6978,
      "Ġrecur": 6979,
      "ĊĠĠĠĠĊĠĠĠĠĊĊĠĠĠ": 6980,
      "vered": 6981,
      "Ġdefinitions": 6982,
      "Ġ256": 6983,
      "Ġlibspice": 6984,
      "Ġtrim": 6985,
      "ixed": 6986,
      "Ġstatistics": 6987,
      "received": 6988,
      "Ġ...": 6989,
      "!\"": 6990,
      "Msg": 6991,
      "Pos": 6992,
      "hit": 6993,
      "rived": 6994,
      "Ġlengths": 6995,
      "country": 6996,
      "Serialize": 6997,
      "Loc": 6998,
      "sses": 6999,
      "Ġten": 7000,
      "Ġtoo": 7001,
      "trunc": 7002,
      "Tool": 7003,
      "Ġmouse": 7004,
      "cleanup": 7005,
      "neighbor": 7006,
      "FLAGS": 7007,
      "gid": 7008,
      "smooth": 7009,
      "gered": 7010,
      "unded": 7011,
      "Ġwa": 7012,
      "mouse": 7013,
      "stringToChar": 7014,
      "Ġcombined": 7015,
      "Ġvisited": 7016,
      "stringToCharP": 7017,
      "SL": 7018,
      "Sim": 7019,
      "ux": 7020,
      "Ġdouble": 7021,
      "iodic": 7022,
      "Ġmoment": 7023,
      "Ġ\"/\"": 7024,
      "ĠUnicode": 7025,
      "crop": 7026,
      "Ġ()": 7027,
      "queries": 7028,
      "Ġprojection": 7029,
      "Encoder": 7030,
      "windows": 7031,
      "Ġspeed": 7032,
      "Ġcn": 7033,
      "Ġrx": 7034,
      "literal": 7035,
      "Ġtrunc": 7036,
      "Ġintersection": 7037,
      "ĠEd": 7038,
      "ĠElement": 7039,
      "Lookup": 7040,
      "relationship": 7041,
      "plane": 7042,
      "Ġchoice": 7043,
      "Ġpay": 7044,
      "indexer": 7045,
      "Loop": 7046,
      "Ġdists": 7047,
      "activate": 7048,
      "37": 7049,
      "hstack": 7050,
      "ĊĊĠĠĠĠĠĠĠĠĠĠĠĠĠĠĠĠĠĠĠĠĊĠĠĠĠĠĠĠĠĠĠĠĠĠĠĠĠĠĠĠ": 7051,
      "secs": 7052,
      "hest": 7053,
      "room": 7054,
      "Ġway": 7055,
      "magnitude": 7056,
      "person": 7057,
      "ĠApp": 7058,
      "ĊĠĠĠĠĠĠĠĠĠĠĠĠĠĠĠĠĠĠĠĠĠĠĠĠĠĠĠĠĠĠĠĠĠĠĠĠĠĠĠĠĠĠĠĠĠĠĠĠĠĠĠĠ": 7059,
      "observation": 7060,
      "POINT": 7061,
      "Ġneighbor": 7062,
      "Sends": 7063,
      "Ġmis": 7064,
      "Ġconsumer": 7065,
      "ĠIt": 7066,
      "licked": 7067,
      "Ġboot": 7068,
      "Ġcheckpoint": 7069,
      "COMM": 7070,
      "duction": 7071,
      "Ġdecorated": 7072,
      "solution": 7073,
      "Ġtw": 7074,
      "Ġfrozen": 7075,
      "coeffs": 7076,
      "appa": 7077,
      "compare": 7078,
      "PEN": 7079,
      "executor": 7080,
      "predictions": 7081,
      "rmtree": 7082,
      "ensity": 7083,
      "defs": 7084,
      "Ġdynamic": 7085,
      "Ġdetermine": 7086,
      "Ġerrno": 7087,
      "Ġgeo": 7088,
      "bb": 7089,
      "ĠĠĊĠĠĠĠĠĠĠĠĠĠĠĠĠĠĠĠĠĠĠ": 7090,
      "Ġ({": 7091,
      "ĠOn": 7092,
      "Ġready": 7093,
      "\"]),": 7094,
      "certificate": 7095,
      "inspect": 7096,
      "since": 7097,
      "Json": 7098,
      "LAN": 7099,
      "NA": 7100,
      "tot": 7101,
      "ttl": 7102,
      "Ġ[_": 7103,
      "numeric": 7104,
      "ĊĠĠĠĠĠĠĠĠĊĠĠĠĠĠĠĠĠĊĠĠĠĠĠĠĠĠĊĠĠĠĠĠĠĠĠĊĠĠĠĠĠĠĠĠĊĠĠĠĠĠĠĠ": 7105,
      "gorical": 7106,
      "Ġpkt": 7107,
      "Main": 7108,
      "Vari": 7109,
      "dynamic": 7110,
      "rum": 7111,
      "Ġplayer": 7112,
      "Ġdates": 7113,
      "Ġxmax": 7114,
      "iteration": 7115,
      "splits": 7116,
      "Proxy": 7117,
      "Ġadapter": 7118,
      "Ġfinished": 7119,
      "ĠParse": 7120,
      "Allow": 7121,
      "Ġrelationship": 7122,
      ");": 7123,
      "29": 7124,
      "RDF": 7125,
      "kmip": 7126,
      "Ġwant": 7127,
      "Ġrhs": 7128,
      "cally": 7129,
      "Ġcompile": 7130,
      "Ġpublish": 7131,
      "activation": 7132,
      "cipient": 7133,
      "Rule": 7134,
      "getcwd": 7135,
      "Report": 7136,
      "])[": 7137,
      "ventory": 7138,
      "ĠArg": 7139,
      "Determines": 7140,
      "COD": 7141,
      "Ġexpanded": 7142,
      "pkt": 7143,
      "scopes": 7144,
      "mbolic": 7145,
      "II": 7146,
      "LY": 7147,
      "Ġbb": 7148,
      "tached": 7149,
      "packed": 7150,
      "ĊĠĠĠĠĠĠĠĠĠĠĠĠĠĠĠĠĠĠĠĠĠĠĠĠĠĠĠĠĠĠĠĠĠĠĠĠĠĠĠĠĠĠĠĠĠĠĠĠĠĠĠĠĠĠĠ": 7151,
      "Ġstdin": 7152,
      "bindings": 7153,
      "Raw": 7154,
      "Ġnative": 7155,
      "viation": 7156,
      "factors": 7157,
      "embedding": 7158,
      "Ġincluding": 7159,
      "lide": 7160,
      "minutes": 7161,
      "configure": 7162,
      "portal": 7163,
      "Ġface": 7164,
      "finish": 7165,
      "WORD": 7166,
      "mn": 7167,
      "Ġmk": 7168,
      "(\"\")": 7169,
      "Ġprocesses": 7170,
      "trial": 7171,
      "paired": 7172,
      "ĠBy": 7173,
      "Ġextend": 7174,
      "Param": 7175,
      "Idx": 7176,
      "Ġauthentication": 7177,
      "structions": 7178,
      "ĠAssertionError": 7179,
      "44": 7180,
      "Uti": 7181,
      "pv": 7182,
      "atives": 7183,
      "Ġdjango": 7184,
      "Ġrup": 7185,
      "parallel": 7186,
      "ises": 7187,
      "resolver": 7188,
      "scripts": 7189,
      "Ġvisible": 7190,
      "capacity": 7191,
      "404": 7192,
      ">`": 7193,
      "ĊĊĠĠĠĠĊĠĠĠĠ": 7194,
      "Ġmargin": 7195,
      "umor": 7196,
      "Ġprops": 7197,
      "Ġcompound": 7198,
      "Ġspecial": 7199,
      "manage": 7200,
      "LAB": 7201,
      "Ġregions": 7202,
      ":].": 7203,
      "clock": 7204,
      "hunt": 7205,
      "two": 7206,
      "ĠValidationError": 7207,
      "Ġcop": 7208,
      "tial": 7209,
      "Ġsink": 7210,
      "digits": 7211,
      "Ġdry": 7212,
      "dataframe": 7213,
      "outcome": 7214,
      "Ġpress": 7215,
      "sky": 7216,
      "Ġweighted": 7217,
      "TES": 7218,
      "Builder": 7219,
      "hide": 7220,
      "TIMEOUT": 7221,
      "QUEST": 7222,
      "EC": 7223,
      "palette": 7224,
      "vstack": 7225,
      "ĊĊĠĠĠĠĠĠĠĠĠĠĠĠĠĠĠĠĠĠĠĠĠĠĠ": 7226,
      "Ġer": 7227,
      "Ġii": 7228,
      "Ġdisp": 7229,
      "ĠSub": 7230,
      "matched": 7231,
      "based": 7232,
      "Ġsimp": 7233,
      "Ġacc": 7234,
      "Unit": 7235,
      "hierarchy": 7236,
      "Ġurls": 7237,
      "Ġful": 7238,
      "locale": 7239,
      "Ġmol": 7240,
      "Ġvcf": 7241,
      "Ġroll": 7242,
      "prefixes": 7243,
      "Ġ\".\"": 7244,
      "ĠReg": 7245,
      "Ġfraction": 7246,
      "levation": 7247,
      "ost": 7248,
      "player": 7249,
      "filen": 7250,
      "Ġmeans": 7251,
      "scroll": 7252,
      "Ġcanvas": 7253,
      "UNK": 7254,
      "white": 7255,
      "Descriptor": 7256,
      "ancestors": 7257,
      "\\\"": 7258,
      "ggered": 7259,
      "tm": 7260,
      "utation": 7261,
      "raft": 7262,
      "mpath": 7263,
      "Ġray": 7264,
      "pert": 7265,
      "kwds": 7266,
      "Ġchr": 7267,
      "ĠCheck": 7268,
      "Ġalso": 7269,
      "ĠBlock": 7270,
      "aster": 7271,
      "PORT": 7272,
      "Ġsr": 7273,
      "mappings": 7274,
      "ĠRO": 7275,
      "checker": 7276,
      "ĠHttp": 7277,
      "Ġavg": 7278,
      "Ph": 7279,
      "])))": 7280,
      "ĊĊĠĠĠĠĊĊĠĠĠ": 7281,
      "Ġlongitude": 7282,
      "Ġactivity": 7283,
      "Ġfollowing": 7284,
      "Estim": 7285,
      "Lim": 7286,
      "mig": 7287,
      "uit": 7288,
      "Ġzeros": 7289,
      "instruction": 7290,
      "Ġtakes": 7291,
      "Ġsampling": 7292,
      "Ġworld": 7293,
      "Ġproper": 7294,
      "negative": 7295,
      "Ġ360": 7296,
      "Profile": 7297,
      "locator": 7298,
      "Factor": 7299,
      "Ġpermissions": 7300,
      "86": 7301,
      "orph": 7302,
      "alan": 7303,
      "iterations": 7304,
      "compiler": 7305,
      "LIST": 7306,
      "Ġobserved": 7307,
      "globals": 7308,
      "Script": 7309,
      "Ġhours": 7310,
      "Poly": 7311,
      "oauth": 7312,
      "encrypted": 7313,
      "tection": 7314,
      "Ġstarted": 7315,
      "Len": 7316,
      "WA": 7317,
      "detect": 7318,
      "Ġcmp": 7319,
      "sized": 7320,
      "sens": 7321,
      "iteral": 7322,
      "ĠNum": 7323,
      "ĠGroup": 7324,
      "Ġregular": 7325,
      "Ġtranslate": 7326,
      "signals": 7327,
      "Performs": 7328,
      "ĠPoint": 7329,
      "browser": 7330,
      "ov": 7331,
      "dele": 7332,
      "lica": 7333,
      "Ġws": 7334,
      "Ġdisco": 7335,
      "Ġminute": 7336,
      "Iterate": 7337,
      "Ġfunctools": 7338,
      "Ġsqrt": 7339,
      "nm": 7340,
      "sam": 7341,
      "directories": 7342,
      "Ġbam": 7343,
      "Ġ_(\"": 7344,
      "addresses": 7345,
      "pick": 7346,
      "RED": 7347,
      "compatible": 7348,
      "submission": 7349,
      "lattice": 7350,
      "MESSAGE": 7351,
      "sumed": 7352,
      "Policy": 7353,
      "Ġquote": 7354,
      "notebook": 7355,
      "velope": 7356,
      "Mask": 7357,
      "inct": 7358,
      "Ġ[{": 7359,
      "ĠTra": 7360,
      "LENG": 7361,
      "Ġoffsets": 7362,
      "boardInterrupt": 7363,
      "Ids": 7364,
      "WOR": 7365,
      "enc": 7366,
      "Ġplay": 7367,
      "Ġpdf": 7368,
      "setLevel": 7369,
      "Ġspecies": 7370,
      "Attributes": 7371,
      "IST": 7372,
      "mime": 7373,
      "Ġdeep": 7374,
      "resolved": 7375,
      "Ġlex": 7376,
      "boxes": 7377,
      "Ġlevels": 7378,
      "levant": 7379,
      "SQL": 7380,
      "dom": 7381,
      "ffi": 7382,
      "ĠĠĊĠĠĠĠĊĠĠĠ": 7383,
      "Ġpb": 7384,
      "corr": 7385,
      "MPLE": 7386,
      "Ġunderlying": 7387,
      "PARAM": 7388,
      "STRING": 7389,
      "LENGTH": 7390,
      "BE": 7391,
      "UI": 7392,
      "pur": 7393,
      "ĠReturn": 7394,
      "Ġelapsed": 7395,
      "disco": 7396,
      "Ġnumeric": 7397,
      "subscribe": 7398,
      "ĠBo": 7399,
      "communic": 7400,
      "cpus": 7401,
      "Ġexecutable": 7402,
      "Prefix": 7403,
      "Ġissue": 7404,
      "Title": 7405,
      "crc": 7406,
      "Ġ64": 7407,
      "regs": 7408,
      "Ġcoordinate": 7409,
      "Ġcreates": 7410,
      "Ġmatplotlib": 7411,
      "Ġdocs": 7412,
      "centers": 7413,
      "FFFFFFFF": 7414,
      "Agent": 7415,
      "CACHE": 7416,
      "GRO": 7417,
      "_\"": 7418,
      "Ġele": 7419,
      "Ġdeepcopy": 7420,
      "Ġresolved": 7421,
      "Ġmemo": 7422,
      "Storage": 7423,
      "Ġclusters": 7424,
      "</": 7425,
      "Jo": 7426,
      "Popen": 7427,
      "TABLE": 7428,
      "\\\\": 7429,
      "alect": 7430,
      "tip": 7431,
      "oll": 7432,
      "ĠSign": 7433,
      "velength": 7434,
      "ĠURI": 7435,
      "SSL": 7436,
      "URN": 7437,
      "completed": 7438,
      "periods": 7439,
      "Ġpeak": 7440,
      "clause": 7441,
      "encrypt": 7442,
      "roke": 7443,
      "Ġroom": 7444,
      "Ġsubmission": 7445,
      "latent": 7446,
      "ĊĠĠĠĠĠĠĠĠĠĠĠĠĠĠĠĠĠĠĠĠĠĠĠĠĠĠĠĠĠĠĠĠĠĠĠĠĠĠĠĠĠĠĠĠĠĠĠĠĠĠĠĠĠ": 7447,
      "Ġprocessor": 7448,
      "Ġlibxml": 7449,
      "Height": 7450,
      "Ġmagic": 7451,
      "WARNING": 7452,
      "ominator": 7453,
      "Used": 7454,
      "tan": 7455,
      "Ġes": 7456,
      "topology": 7457,
      "Ġchan": 7458,
      "mins": 7459,
      "ĠDate": 7460,
      "ynomial": 7461,
      "Ġcompressed": 7462,
      "Ġwere": 7463,
      "Ġbackup": 7464,
      "parsers": 7465,
      "CHAR": 7466,
      "Ġpixels": 7467,
      "600": 7468,
      "gre": 7469,
      "lb": 7470,
      "Ġpaired": 7471,
      "Ġaltern": 7472,
      "issue": 7473,
      "completion": 7474,
      "Description": 7475,
      "converter": 7476,
      "panel": 7477,
      "ĠĠĠĠĠĠĠĠĠĠĠ": 7478,
      "ced": 7479,
      "pars": 7480,
      "qubit": 7481,
      "posed": 7482,
      "luster": 7483,
      "aux": 7484,
      "Ġignored": 7485,
      "transformer": 7486,
      "receive": 7487,
      "Ġfailure": 7488,
      "Parent": 7489,
      "Che": 7490,
      "Dim": 7491,
      "Lvl": 7492,
      "kl": 7493,
      "raster": 7494,
      "etches": 7495,
      "Ġroles": 7496,
      "Ġonce": 7497,
      "substit": 7498,
      "ĠOpen": 7499,
      "Ġassignment": 7500,
      "Ġdifference": 7501,
      "rdd": 7502,
      "decor": 7503,
      "urb": 7504,
      "Ġdz": 7505,
      "Ġconfigured": 7506,
      "lastic": 7507,
      "ĠIDs": 7508,
      "Ġalignment": 7509,
      "Ġlatest": 7510,
      "Flag": 7511,
      "HA": 7512,
      "jar": 7513,
      "mts": 7514,
      "Ġmig": 7515,
      "preprocess": 7516,
      "ĠFor": 7517,
      "quired": 7518,
      "Ġboard": 7519,
      "responses": 7520,
      "grp": 7521,
      "crete": 7522,
      "rightness": 7523,
      "Admin": 7524,
      "Annot": 7525,
      "Interval": 7526,
      "Ġreceiver": 7527,
      "Ġfigure": 7528,
      "Ġconverted": 7529,
      "crs": 7530,
      "ptime": 7531,
      "setText": 7532,
      "Ġlet": 7533,
      "Ġbasename": 7534,
      "ough": 7535,
      "_{": 7536,
      "dian": 7537,
      "ctionaries": 7538,
      "\")):": 7539,
      "Ġpainter": 7540,
      "roots": 7541,
      "Ġhosts": 7542,
      "initializer": 7543,
      "Ġlatitude": 7544,
      "Ġdirname": 7545,
      "BR": 7546,
      "FIN": 7547,
      "Take": 7548,
      "]\"": 7549,
      "duplicate": 7550,
      "argsort": 7551,
      "ighest": 7552,
      "ĠTable": 7553,
      "docker": 7554,
      "graphic": 7555,
      "topics": 7556,
      "000000": 7557,
      "Ġcertain": 7558,
      "SM": 7559,
      "inp": 7560,
      "Ġincoming": 7561,
      "ctan": 7562,
      "confirm": 7563,
      "ised": 7564,
      "aggreg": 7565,
      "filt": 7566,
      "Ġcallbacks": 7567,
      "iki": 7568,
      "mx": 7569,
      "pull": 7570,
      "Ġtake": 7571,
      "Ġcancel": 7572,
      "Ġnan": 7573,
      "utine": 7574,
      "Ġrng": 7575,
      "artbeat": 7576,
      "mitted": 7577,
      "Ġprice": 7578,
      "degrees": 7579,
      "taxError": 7580,
      "margin": 7581,
      "stride": 7582,
      "standard": 7583,
      "Ġremainder": 7584,
      "Ġcr": 7585,
      "Ġmicro": 7586,
      "chors": 7587,
      "Ġhit": 7588,
      "Ġouter": 7589,
      "Export": 7590,
      "numer": 7591,
      "utit": 7592,
      "Loader": 7593,
      "support": 7594,
      "Ġpoll": 7595,
      "Ġdecoded": 7596,
      "CLI": 7597,
      "mil": 7598,
      "increment": 7599,
      "Ġna": 7600,
      "Ġduring": 7601,
      "endpoints": 7602,
      "ances": 7603,
      "Stats": 7604,
      "Left": 7605,
      "500": 7606,
      "]\"]": 7607,
      "Ġpull": 7608,
      "lid": 7609,
      "Recursively": 7610,
      "Ġless": 7611,
      "temperature": 7612,
      "DELETE": 7613,
      "transactions": 7614,
      "Ġprovide": 7615,
      "Ġchars": 7616,
      "finalize": 7617,
      "ĠQtGui": 7618,
      "AUTH": 7619,
      "DC": 7620,
      "Ob": 7621,
      "snp": 7622,
      "Ġ\"+": 7623,
      "Ġgreen": 7624,
      "isect": 7625,
      "Ġcoeff": 7626,
      "ĠFI": 7627,
      "Ġcompress": 7628,
      "See": 7629,
      "Ġ30": 7630,
      "traj": 7631,
      "Ġadds": 7632,
      "Post": 7633,
      "Ġexecutor": 7634,
      "ĊĠĠĠĠĊĠĠĠĠĊĠĠĠĠĊĠĠĠĠĊĠĠĠĠĊĠĠĠĠĊĠĠĠĠĊĠĠĠĠ": 7635,
      "bag": 7636,
      "bling": 7637,
      "branches": 7638,
      "Ġunc": 7639,
      "Ġtp": 7640,
      "Ġtt": 7641,
      "Ġet": 7642,
      "Ġeta": 7643,
      "spac": 7644,
      "ĠTask": 7645,
      "Ġlogs": 7646,
      "ĠFROM": 7647,
      "Ensure": 7648,
      "Project": 7649,
      "Byte": 7650,
      "Ġtrial": 7651,
      "distances": 7652,
      "ĠStream": 7653,
      "examples": 7654,
      "Ġgreater": 7655,
      ":\"": 7656,
      "IF": 7657,
      "Pattern": 7658,
      "Sort": 7659,
      "]\",": 7660,
      "gi": 7661,
      "ners": 7662,
      "xff": 7663,
      "ĊĊĠĠĠĠĠĠĊĠĠĠĠĠ": 7664,
      "Ġslug": 7665,
      "ivot": 7666,
      "REF": 7667,
      "ATCH": 7668,
      "Ġsubscription": 7669,
      "Entity": 7670,
      "ALI": 7671,
      "ĊĠĠĠĠĠĠĊĠĠĠĠĠĠĊĠĠĠĠĠ": 7672,
      "Ġscaled": 7673,
      "Ġprobability": 7674,
      "Ġbroker": 7675,
      "Identifier": 7676,
      "OFF": 7677,
      "]/": 7678,
      "fq": 7679,
      "frozen": 7680,
      "Ġiv": 7681,
      "Ġec": 7682,
      "posterior": 7683,
      "Ġmaps": 7684,
      "Overlay": 7685,
      "One": 7686,
      "namespaces": 7687,
      "shuffle": 7688,
      "Ġruns": 7689,
      "quality": 7690,
      "combo": 7691,
      "cumsum": 7692,
      "RGB": 7693,
      "catch": 7694,
      "dw": 7695,
      "slots": 7696,
      "Ġti": 7697,
      "Ġaz": 7698,
      "renderer": 7699,
      "outdir": 7700,
      "Ġproj": 7701,
      "Ġbases": 7702,
      "charge": 7703,
      "Ġplaceholder": 7704,
      "character": 7705,
      "ian": 7706,
      "atleast": 7707,
      "Ġtok": 7708,
      "boolean": 7709,
      "TRY": 7710,
      "Ġstarts": 7711,
      "Ġred": 7712,
      "loci": 7713,
      "ctype": 7714,
      "terest": 7715,
      "imize": 7716,
      "Ġaddresses": 7717,
      "Ġcontained": 7718,
      "SCRI": 7719,
      "Ġterminal": 7720,
      "EP": 7721,
      "Ori": 7722,
      "ee": 7723,
      "Ġyet": 7724,
      "ĊĠĠĠĠĠĠĠĠĠĠĠĠĠĠĠĠĠĠĠĠĠĠĠĠĠĠĠĠĠĠĠĠĠĠĠĠĠĠĠĠĠĠĠĠĠĠĠĠĠĠĠĠĠĠ": 7725,
      "receiver": 7726,
      "Ġestimate": 7727,
      "\"},": 7728,
      "AML": 7729,
      "FC": 7730,
      "SR": 7731,
      "dct": 7732,
      "xpath": 7733,
      "seu": 7734,
      "Ġttl": 7735,
      "Ġxmin": 7736,
      "REL": 7737,
      "čĊĠĠĠĠĠĠĠĠčĊĠĠĠĠĠĠĠĠĊĠĠĠĠĠĠĠ": 7738,
      "scales": 7739,
      "hyper": 7740,
      "ĠWeb": 7741,
      "HERE": 7742,
      "/:": 7743,
      "fpath": 7744,
      "Ġpc": 7745,
      "lobs": 7746,
      "aper": 7747,
      "Ġhier": 7748,
      "Ġbecause": 7749,
      "ĠAR": 7750,
      "Ġleaf": 7751,
      "Args": 7752,
      "Handles": 7753,
      "Builds": 7754,
      "ingerprint": 7755,
      "Ġtenant": 7756,
      "31": 7757,
      "brain": 7758,
      "dialog": 7759,
      "Ġfileobj": 7760,
      "ysql": 7761,
      "datasets": 7762,
      "Ġtranscript": 7763,
      "Ġdistances": 7764,
      "Ġquiet": 7765,
      ")._": 7766,
      "hol": 7767,
      "scheduler": 7768,
      "Ġpotential": 7769,
      "Ġsv": 7770,
      "coef": 7771,
      "Ġmtf": 7772,
      "Ġdecimal": 7773,
      "codec": 7774,
      "ĠMAX": 7775,
      "ĠFe": 7776,
      "authors": 7777,
      "COLOR": 7778,
      "!\".": 7779,
      "Imp": 7780,
      "[[": 7781,
      "hits": 7782,
      "ratic": 7783,
      "ĊĊĠĠĠĠĠĠĠĠĊĠĠĠĠĠĠĠĠĊĠĠĠĠĠĠĠĠĊĠĠĠĠĠĠĠĠ": 7784,
      "Ġreward": 7785,
      "Ġgf": 7786,
      "Ġrm": 7787,
      "strptime": 7788,
      "groupby": 7789,
      "transcript": 7790,
      "ĊĊĊĊ": 7791,
      "Ġcombine": 7792,
      "Datetime": 7793,
      "INTERN": 7794,
      "Ġdegree": 7795,
      "'.": 7796,
      "BACK": 7797,
      "cdf": 7798,
      "gates": 7799,
      "nado": 7800,
      "uation": 7801,
      "Ġnm": 7802,
      "Ġconversion": 7803,
      "shif": 7804,
      "exe": 7805,
      "Ġ{!": 7806,
      "ĠRead": 7807,
      "Transaction": 7808,
      "Ġmappings": 7809,
      "ĠOperation": 7810,
      "critical": 7811,
      "riendly": 7812,
      "BC": 7813,
      "Rate": 7814,
      "Wh": 7815,
      "Yield": 7816,
      "wl": 7817,
      "reversed": 7818,
      "definitions": 7819,
      "Ġevaluate": 7820,
      "Ġbs": 7821,
      "Ġblack": 7822,
      "getvalue": 7823,
      "Ġtopology": 7824,
      "Look": 7825,
      "GEX": 7826,
      "Visible": 7827,
      "longitude": 7828,
      "88": 7829,
      "decay": 7830,
      "Ġspect": 7831,
      "Ġdeps": 7832,
      "percentile": 7833,
      "dirty": 7834,
      "Ġwhite": 7835,
      "osome": 7836,
      "Setup": 7837,
      "Ġseparator": 7838,
      "nowledge": 7839,
      "/{}": 7840,
      "fut": 7841,
      "enari": 7842,
      "Ġfallback": 7843,
      "Ġinp": 7844,
      "cover": 7845,
      "))):": 7846,
      "argspec": 7847,
      "license": 7848,
      "jectory": 7849,
      "population": 7850,
      "Ġcalendar": 7851,
      "Ġfinish": 7852,
      "Ġwritten": 7853,
      "Ġmasked": 7854,
      "=\",": 7855,
      "sampler": 7856,
      "ens": 7857,
      "Ġcmap": 7858,
      "Cons": 7859,
      "Ġextended": 7860,
      "Ġtempfile": 7861,
      "ĠKeyboardInterrupt": 7862,
      "URCE": 7863,
      "destroy": 7864,
      "ixin": 7865,
      "Ġfastq": 7866,
      "Ġbasis": 7867,
      "Ġmaybe": 7868,
      "Skip": 7869,
      "Pe": 7870,
      "fm": 7871,
      "xmin": 7872,
      "}/{": 7873,
      "Ġnc": 7874,
      "Ġnr": 7875,
      "ĠTensor": 7876,
      "ĠApi": 7877,
      "runs": 7878,
      "Dialog": 7879,
      "Ġ\",\".": 7880,
      "when": 7881,
      "relpath": 7882,
      "79": 7883,
      "BASE": 7884,
      "LATE": 7885,
      "iloc": 7886,
      "plots": 7887,
      "Ġsid": 7888,
      "Ġhalf": 7889,
      "Ġanchor": 7890,
      "readlines": 7891,
      "ĠAuth": 7892,
      "acket": 7893,
      "Ġheap": 7894,
      "dists": 7895,
      "specific": 7896,
      "(\"/\")": 7897,
      "Ġsquare": 7898,
      "seudo": 7899,
      "Cor": 7900,
      "SN": 7901,
      "rections": 7902,
      "Ġrepe": 7903,
      "Ġsolver": 7904,
      "pretty": 7905,
      "ĠScale": 7906,
      "sentences": 7907,
      "REC": 7908,
      "Protocol": 7909,
      "Ġmanage": 7910,
      "swap": 7911,
      "ĠArgument": 7912,
      "Ġpalette": 7913,
      "chdir": 7914,
      "feat": 7915,
      "Ġtemporary": 7916,
      "CLASS": 7917,
      "Rot": 7918,
      "bulk": 7919,
      "cmap": 7920,
      "ni": 7921,
      "reward": 7922,
      "Ġctxt": 7923,
      "Ġbulk": 7924,
      "ERS": 7925,
      "requester": 7926,
      "Rows": 7927,
      "Ġnotebook": 7928,
      "Host": 7929,
      ",%": 7930,
      "dv": 7931,
      "nick": 7932,
      "repe": 7933,
      "station": 7934,
      "pex": 7935,
      "ĠPY": 7936,
      "Selection": 7937,
      "cles": 7938,
      "LAY": 7939,
      "Ġabort": 7940,
      "Ġreceive": 7941,
      "squared": 7942,
      "Cd": 7943,
      "NULL": 7944,
      "Ġquestion": 7945,
      "incip": 7946,
      "Ġcwd": 7947,
      "Ġcnt": 7948,
      "adow": 7949,
      "additional": 7950,
      "moment": 7951,
      "Convenience": 7952,
      "agg": 7953,
      "Shk": 7954,
      "Short": 7955,
      "widgets": 7956,
      "TIONS": 7957,
      "blk": 7958,
      "Ġpreviously": 7959,
      "lexer": 7960,
      "attachment": 7961,
      "Fields": 7962,
      "ĊĊĊĠĠĠĠĠĠĠ": 7963,
      "retrieve": 7964,
      "metry": 7965,
      "Ġinfer": 7966,
      "defer": 7967,
      "ions": 7968,
      "lam": 7969,
      "serted": 7970,
      "Expression": 7971,
      "ftp": 7972,
      "dry": 7973,
      "gain": 7974,
      "(\".\",": 7975,
      "Ġconditions": 7976,
      "Ġguess": 7977,
      "spy": 7978,
      "checked": 7979,
      "subscription": 7980,
      "Ġsubstit": 7981,
      "jector": 7982,
      "Ġdocstring": 7983,
      "Ġpartitions": 7984,
      "Ġoptionally": 7985,
      "ĊĠĠĠĠĠĠĠĠĠĠĠĠĊĠĠĠĠĠĠĠĠĠĠĠĠĊĠĠĠĠĠĠĠĠĠĠĠĠĊĠĠĠĠĠĠĠĠĠĠĠĠĊĠĠĠĠĠĠĠĠĠĠĠ": 7986,
      "scaled": 7987,
      "Ġconflict": 7988,
      "Install": 7989,
      "Ġcrypto": 7990,
      "Ġconstructor": 7991,
      "Ġconfigure": 7992,
      "without": 7993,
      "ĠGO": 7994,
      "Ġdeploy": 7995,
      "ROOT": 7996,
      "clusion": 7997,
      "atibility": 7998,
      "Ġflush": 7999,
      "Ġpredicted": 8000,
      "Ġattachment": 8001,
      "',": 8002,
      "Sw": 8003,
      "fac": 8004,
      "ug": 8005,
      "uals": 8006,
      "xp": 8007,
      "čĊĠĠĠĠĠĠĠĠĠĠĠĠ": 8008,
      "stand": 8009,
      "router": 8010,
      "coeff": 8011,
      "tok": 8012,
      "prox": 8013,
      "agger": 8014,
      "svc": 8015,
      "estimate": 8016,
      "multiply": 8017,
      "ĠSystem": 8018,
      "MIP": 8019,
      "SD": 8020,
      "ace": 8021,
      "bum": 8022,
      "dup": 8023,
      "km": 8024,
      "pn": 8025,
      "sage": 8026,
      "aring": 8027,
      "anchor": 8028,
      "Ġincrement": 8029,
      "Ġequivalent": 8030,
      "Ġproblems": 8031,
      "__()": 8032,
      "epsilon": 8033,
      "Ġatol": 8034,
      "ĠUN": 8035,
      "Settings": 8036,
      "flows": 8037,
      "Signal": 8038,
      "SIGN": 8039,
      "Ġplane": 8040,
      "precationWarning": 8041,
      "GP": 8042,
      "So": 8043,
      "Writer": 8044,
      "eye": 8045,
      "gather": 8046,
      "invoke": 8047,
      "Ġstride": 8048,
      "Ġlogits": 8049,
      "Ġ{}:": 8050,
      "Prepare": 8051,
      "clared": 8052,
      "EVENT": 8053,
      ",:]": 8054,
      "Fi": 8055,
      "ĊĠĠĠĠĠĠĠĠĊĠĠĠ": 8056,
      "dead": 8057,
      "stri": 8058,
      "Ġir": 8059,
      "itable": 8060,
      "cookies": 8061,
      "mpy": 8062,
      "serts": 8063,
      "Ġdelimiter": 8064,
      "Ġargv": 8065,
      "Ġbounding": 8066,
      "rotate": 8067,
      "Ġcategories": 8068,
      "Simple": 8069,
      "ached": 8070,
      "follow": 8071,
      "oo": 8072,
      "Ġcontig": 8073,
      "Ġposterior": 8074,
      "matmul": 8075,
      "queues": 8076,
      "Ġarc": 8077,
      "rective": 8078,
      "Ġvariance": 8079,
      "400": 8080,
      "Memory": 8081,
      "Socket": 8082,
      "gfile": 8083,
      "mgr": 8084,
      "plate": 8085,
      "styles": 8086,
      "arctan": 8087,
      "tifs": 8088,
      "Ġpts": 8089,
      "Ġssh": 8090,
      "Ġgc": 8091,
      "Ġkv": 8092,
      "infos": 8093,
      "REGEX": 8094,
      "Seq": 8095,
      "Parameters": 8096,
      "Limit": 8097,
      "}}": 8098,
      "stanza": 8099,
      "Ġindividual": 8100,
      "Ġsil": 8101,
      "vidence": 8102,
      "litude": 8103,
      "Ġatoms": 8104,
      "Ġalle": 8105,
      "Provide": 8106,
      "translation": 8107,
      "ĠVM": 8108,
      "Ġ&=": 8109,
      "Ġoverlay": 8110,
      "theme": 8111,
      "installed": 8112,
      "boundary": 8113,
      "specification": 8114,
      "Ġdaemon": 8115,
      "ĠFieldType": 8116,
      "OM": 8117,
      "Pix": 8118,
      "xFF": 8119,
      "Ġtd": 8120,
      "endants": 8121,
      "Ġmajor": 8122,
      "conflict": 8123,
      "Ġgood": 8124,
      "OUTPUT": 8125,
      "normpath": 8126,
      "Schedule": 8127,
      "frequencies": 8128,
      "href": 8129,
      "lm": 8130,
      "vlan": 8131,
      "Ġaliases": 8132,
      "allen": 8133,
      "Ġta": 8134,
      "routes": 8135,
      "Ġmm": 8136,
      "backward": 8137,
      "ĊĠĠĠĠĠĠĠĠĠĠĠĠĠĠĠĠĠĠĠĠĊĠĠĠĠĠĠĠĠĠĠĠĠĠĠĠĠĠĠĠĠ": 8138,
      "Unexpected": 8139,
      "canonical": 8140,
      "bio": 8141,
      "bond": 8142,
      "ffici": 8143,
      "ials": 8144,
      "Ġimplemented": 8145,
      "ala": 8146,
      "Ġstanza": 8147,
      "Ġcoverage": 8148,
      "nest": 8149,
      "acency": 8150,
      "ĠMapping": 8151,
      "reach": 8152,
      "Ġdicts": 8153,
      "alizable": 8154,
      "Ġestimator": 8155,
      "havi": 8156,
      "[~": 8157,
      "pas": 8158,
      "Ġlimits": 8159,
      "sector": 8160,
      "seline": 8161,
      "Ġresize": 8162,
      "today": 8163,
      "needed": 8164,
      "tracker": 8165,
      "authenticated": 8166,
      "Stack": 8167,
      "Turn": 8168,
      "Ġhome": 8169,
      "pared": 8170,
      "ĠClass": 8171,
      "crease": 8172,
      "ĠConst": 8173,
      ")].": 8174,
      "Ġil": 8175,
      "Ġrepeat": 8176,
      "ceed": 8177,
      "Ġown": 8178,
      "dia": 8179,
      "otypes": 8180,
      "ulator": 8181,
      "sibility": 8182,
      "ĠDis": 8183,
      "****": 8184,
      "interfaces": 8185,
      "ĠUT": 8186,
      "Namespace": 8187,
      "notes": 8188,
      "ducer": 8189,
      "allele": 8190,
      "ributions": 8191,
      "Ġcleanup": 8192,
      "Ġassigned": 8193,
      ")[-": 8194,
      "KEN": 8195,
      "eces": 8196,
      "guess": 8197,
      "wall": 8198,
      "Ġfc": 8199,
      "Ġfl": 8200,
      "Ġbalance": 8201,
      "ulari": 8202,
      "endor": 8203,
      "Ġdetermin": 8204,
      "SES": 8205,
      "Ġverbosity": 8206,
      "Ġlocals": 8207,
      "CHAN": 8208,
      "Iterator": 8209,
      "Generic": 8210,
      "legal": 8211,
      "Ġmapper": 8212,
      "ĠToken": 8213,
      "Cdlib": 8214,
      "72": 8215,
      "ections": 8216,
      "ĊĊĠĠĠĠĠĠĠĠĊĠĠĠĠĠĠĠĠĊĠĠĠĠĠĠĠĠĊĠĠĠĠĠĠĠĠĊĠĠĠĠĠĠĠ": 8217,
      "decrypt": 8218,
      "Ġimt": 8219,
      "arrow": 8220,
      "positive": 8221,
      "Ġxpath": 8222,
      "Ġlb": 8223,
      "libexception": 8224,
      "Ġfilt": 8225,
      "Ġpycd": 8226,
      "LIB": 8227,
      "LIC": 8228,
      "which": 8229,
      "PyCdlib": 8230,
      "antiate": 8231,
      "Private": 8232,
      "omatically": 8233,
      "Ġpycdlibexception": 8234,
      "RAN": 8235,
      "asic": 8236,
      "kb": 8237,
      "lhs": 8238,
      "pip": 8239,
      "yy": 8240,
      "urses": 8241,
      "Ġfr": 8242,
      "Ġbank": 8243,
      "Ġdigits": 8244,
      "formatted": 8245,
      "predic": 8246,
      "Ġwhose": 8247,
      "Ġshutdown": 8248,
      "reaction": 8249,
      "Proto": 8250,
      "Elements": 8251,
      "SOURCE": 8252,
      "ĠService": 8253,
      "Ġentities": 8254,
      "Failure": 8255,
      "ĠTemplate": 8256,
      "communicate": 8257,
      "Fore": 8258,
      "inline": 8259,
      "Ġsolve": 8260,
      "perform": 8261,
      "ĠAt": 8262,
      "Ġnumer": 8263,
      "Ġjc": 8264,
      "subscri": 8265,
      "Ġpick": 8266,
      "fastaccess": 8267,
      "while": 8268,
      "merged": 8269,
      "chanism": 8270,
      "Ġoptimizer": 8271,
      "pandas": 8272,
      "ĊĊĊĠĠĠ": 8273,
      "leaves": 8274,
      "Ġhuman": 8275,
      "collections": 8276,
      "ĠDoc": 8277,
      "itertools": 8278,
      "Ġcanonical": 8279,
      "Ġhelpme": 8280,
      "symlink": 8281,
      "Ġscaling": 8282,
      "Ġestimated": 8283,
      "bre": 8284,
      "hdr": 8285,
      "vrn": 8286,
      "Ġentropy": 8287,
      "Ġins": 8288,
      "Ġbra": 8289,
      "Ġiso": 8290,
      "Ġprog": 8291,
      "Ġrouter": 8292,
      "acked": 8293,
      "accounts": 8294,
      "DED": 8295,
      "CONSTAN": 8296,
      "Registers": 8297,
      "Signature": 8298,
      "epochs": 8299,
      "anitize": 8300,
      "AIN": 8301,
      "ndims": 8302,
      "ym": 8303,
      "ĠĊĠĠĠĠĠĠĠĠĠĠĠĠĠĠĠĠĠĠĠ": 8304,
      "Ġsg": 8305,
      "ulary": 8306,
      "Ġrpc": 8307,
      "Ġcores": 8308,
      "ĊĠĠĠĠĠĠĠĠĠĠĠĠĊĊĠĠĠĠĠĠĠĠĠĠĠ": 8309,
      "pret": 8310,
      "Ġshuffle": 8311,
      "ĠUp": 8312,
      "KeyError": 8313,
      "Ġaggreg": 8314,
      "Ġ128": 8315,
      "Ġclause": 8316,
      "Step": 8317,
      "alogs": 8318,
      "45": 8319,
      "camera": 8320,
      "each": 8321,
      "kt": 8322,
      "detail": 8323,
      "Ġduplicate": 8324,
      "ildcard": 8325,
      "minor": 8326,
      "intersect": 8327,
      "Ġextent": 8328,
      "domains": 8329,
      "rollment": 8330,
      "Account": 8331,
      "letter": 8332,
      "Ġsilent": 8333,
      "flip": 8334,
      "orientation": 8335,
      "Ġnf": 8336,
      "lout": 8337,
      "buckets": 8338,
      "pagate": 8339,
      "ĠClo": 8340,
      "regular": 8341,
      "Ġnearest": 8342,
      "populate": 8343,
      "titude": 8344,
      "containers": 8345,
      "Ġsheet": 8346,
      "Icon": 8347,
      "WE": 8348,
      "sz": 8349,
      "inel": 8350,
      "Ġsd": 8351,
      "livery": 8352,
      "amb": 8353,
      "Ġoptim": 8354,
      "Ġadding": 8355,
      "Ġcaller": 8356,
      "gence": 8357,
      "rgos": 8358,
      "enchmark": 8359,
      "Put": 8360,
      "Red": 8361,
      "evalu": 8362,
      "decess": 8363,
      "Ġnl": 8364,
      "reading": 8365,
      "ipv": 8366,
      "grads": 8367,
      "Ġtransformation": 8368,
      "Ġiterations": 8369,
      "ĠWork": 8370,
      "ĠWindow": 8371,
      "Ġones": 8372,
      "ADD": 8373,
      "TOKEN": 8374,
      "gateway": 8375,
      "Ġcomments": 8376,
      "broker": 8377,
      "multiplier": 8378,
      "Ġfully": 8379,
      "Tr": 8380,
      "cards": 8381,
      "inja": 8382,
      "pear": 8383,
      "Ġcoeffs": 8384,
      "Ġunion": 8385,
      "Ġalg": 8386,
      "REQUEST": 8387,
      "latest": 8388,
      "Ġminor": 8389,
      "coroutine": 8390,
      "Ġargparse": 8391,
      "Ġinterfaces": 8392,
      "scriptors": 8393,
      "Ġtemplates": 8394,
      "Glyph": 8395,
      "Part": 8396,
      "must": 8397,
      "tun": 8398,
      "removed": 8399,
      "Ġok": 8400,
      "\"]):": 8401,
      "episode": 8402,
      "Ġlearning": 8403,
      "Stat": 8404,
      "Ġrunner": 8405,
      "ĠExt": 8406,
      "Hook": 8407,
      "]{": 8408,
      "wcs": 8409,
      "Ġsampler": 8410,
      "Ġsvc": 8411,
      "Ġdom": 8412,
      "adap": 8413,
      "Ġchi": 8414,
      "workdir": 8415,
      "Ġurlparse": 8416,
      "Ġdocuments": 8417,
      "COM": 8418,
      "Ġ50": 8419,
      "9999": 8420,
      "Definition": 8421,
      "Ċĉĉĉĉĉ": 8422,
      "MT": 8423,
      "gat": 8424,
      "jd": 8425,
      "utions": 8426,
      "war": 8427,
      "xlabel": 8428,
      "Ġrestore": 8429,
      "Ġpp": 8430,
      "Ġocc": 8431,
      "rive": 8432,
      "Ġcovariance": 8433,
      "Ġnamespaces": 8434,
      "Ġgetter": 8435,
      "ĠSE": 8436,
      "Ġln": 8437,
      "ĠBEL": 8438,
      "Ġ40": 8439,
      "Ġdatasets": 8440,
      "declaration": 8441,
      "ĠScaleType": 8442,
      "Custom": 8443,
      "Ġent": 8444,
      "Ġrename": 8445,
      "Ġretries": 8446,
      "Ġecho": 8447,
      "Ġdp": 8448,
      "ypered": 8449,
      "(\":\")": 8450,
      "Ġvo": 8451,
      "owel": 8452,
      "irst": 8453,
      "Ġaccum": 8454,
      "Ġquali": 8455,
      "terminate": 8456,
      "Analy": 8457,
      "Ġtimestamps": 8458,
      "tensors": 8459,
      "Ġsimulation": 8460,
      "incipal": 8461,
      "Clean": 8462,
      "Ġincluded": 8463,
      "Ġdag": 8464,
      "Ġhdr": 8465,
      "REP": 8466,
      "Ġpiece": 8467,
      "markers": 8468,
      "nonce": 8469,
      "Ġobservation": 8470,
      "ĠServer": 8471,
      "MSG": 8472,
      "Ġcoefficients": 8473,
      "Variant": 8474,
      "RT": 8475,
      "equ": 8476,
      "Ġndim": 8477,
      "Ġdummy": 8478,
      "mini": 8479,
      "ĠMo": 8480,
      "Ġshare": 8481,
      "tenant": 8482,
      "crets": 8483,
      "ĠHe": 8484,
      "Ġtransformer": 8485,
      "Makes": 8486,
      "predicted": 8487,
      "ĠChannel": 8488,
      "Children": 8489,
      "ĠContent": 8490,
      "Starts": 8491,
      "elif": 8492,
      "ĠĊĠĠĠĠĠĠĠĠĊĠĠĠĠĠĠĠ": 8493,
      "Ġthese": 8494,
      "team": 8495,
      "Ġdon": 8496,
      "Ġ11": 8497,
      "Ġencrypt": 8498,
      "Ġimportlib": 8499,
      "ARD": 8500,
      "TIFI": 8501,
      "capture": 8502,
      "ĠProcess": 8503,
      "Tab": 8504,
      "ade": 8505,
      "Ġcali": 8506,
      "Ġindi": 8507,
      "Ġdue": 8508,
      "Ġ%.": 8509,
      "projection": 8510,
      "calendar": 8511,
      "ĠPlease": 8512,
      "blocking": 8513,
      "Ġfact": 8514,
      "observed": 8515,
      "URATION": 8516,
      "Ġimported": 8517,
      "={}):": 8518,
      "datatype": 8519,
      "weekday": 8520,
      "Ġentire": 8521,
      "Ġderivative": 8522,
      "Ġangles": 8523,
      "fileno": 8524,
      "Checked": 8525,
      "Cate": 8526,
      "FACT": 8527,
      "Hunt": 8528,
      "Sync": 8529,
      "Total": 8530,
      "bon": 8531,
      "hd": 8532,
      "qte": 8533,
      "coeffici": 8534,
      "gether": 8535,
      "Ġdct": 8536,
      "vex": 8537,
      "vect": 8538,
      "Database": 8539,
      "Chain": 8540,
      "Ġgeneric": 8541,
      "Ġapproxim": 8542,
      "DoubleVector": 8543,
      "nf": 8544,
      "Ġscheduler": 8545,
      "assessment": 8546,
      "shake": 8547,
      "Ġasc": 8548,
      "phone": 8549,
      "Ġhashes": 8550,
      "Member": 8551,
      "ĊĠĠĠĠĠĠĠĠĠĠĠĠĠĠĠĠĠĠĠĠĠĠĠĠĠĠĠĠĠĠĠĠĠĠĠĠĠĠĠĠĠĠĠĠĠĠĠĠĠĠĠĠĠĠĠĠĠĠ": 8552,
      "Extracts": 8553,
      "Ġchecked": 8554,
      "listeners": 8555,
      "(?": 8556,
      "llable": 8557,
      "pat": 8558,
      "lets": 8559,
      "chart": 8560,
      "Ġwire": 8561,
      "todo": 8562,
      "Ġdictionaries": 8563,
      "Ġconfigs": 8564,
      "Ġstatements": 8565,
      "locate": 8566,
      "stopped": 8567,
      "transitions": 8568,
      "implicit": 8569,
      "Ġsimilarity": 8570,
      "Ġreduced": 8571,
      "Ġmedian": 8572,
      "enario": 8573,
      "08": 8574,
      "73": 8575,
      "Vis": 8576,
      "ln": 8577,
      "relu": 8578,
      "atal": 8579,
      "Ġcatch": 8580,
      "Ġcriteria": 8581,
      "heap": 8582,
      "chi": 8583,
      "Ġwell": 8584,
      "Ġdid": 8585,
      "Ġymax": 8586,
      "Integer": 8587,
      "Dest": 8588,
      "chains": 8589,
      "Attempt": 8590,
      "written": 8591,
      "Ġteam": 8592,
      "Cmd": 8593,
      "Enum": 8594,
      "Pick": 8595,
      "ctivity": 8596,
      "ffic": 8597,
      "erial": 8598,
      "Ġff": 8599,
      "Ġsz": 8600,
      "cim": 8601,
      "more": 8602,
      "(((": 8603,
      "weighted": 8604,
      "ĠRa": 8605,
      "Ġlearn": 8606,
      "Ġcompat": 8607,
      "sgi": 8608,
      "(_(\"": 8609,
      "Ġblocking": 8610,
      "Ġlocations": 8611,
      "Editor": 8612,
      "Ġfrozenset": 8613,
      "48": 8614,
      "Cho": 8615,
      "Space": 8616,
      "pitch": 8617,
      "once": 8618,
      "encryption": 8619,
      "Ġpip": 8620,
      "Ġslices": 8621,
      "rapping": 8622,
      "atable": 8623,
      "lencode": 8624,
      "Ġrl": 8625,
      "001": 8626,
      "INET": 8627,
      "ĠBad": 8628,
      "Enable": 8629,
      "Ġ^=": 8630,
      "DP": 8631,
      "ares": 8632,
      "Ġfoot": 8633,
      "Ġpitch": 8634,
      "Ġgrp": 8635,
      "spans": 8636,
      "ĠTO": 8637,
      "occur": 8638,
      "irt": 8639,
      "Ġapplied": 8640,
      "Unsupported": 8641,
      "Ġnotify": 8642,
      "closing": 8643,
      "secure": 8644,
      "180": 8645,
      "pdb": 8646,
      "Ġub": 8647,
      "rem": 8648,
      "indicator": 8649,
      "student": 8650,
      "rier": 8651,
      "])):": 8652,
      "chemy": 8653,
      "imal": 8654,
      "Ġhere": 8655,
      "quiet": 8656,
      "stddev": 8657,
      "=[]):": 8658,
      "allest": 8659,
      "Ġcenters": 8660,
      "Calls": 8661,
      "brok": 8662,
      "Web": 8663,
      "GL": 8664,
      "rhs": 8665,
      "reload": 8666,
      "Ġreaction": 8667,
      "tiles": 8668,
      "lax": 8669,
      "Ġuses": 8670,
      "Ġyi": 8671,
      "Ġyields": 8672,
      "Ġann": 8673,
      "ĠDef": 8674,
      "ĠGET": 8675,
      "inality": 8676,
      "Ġaggregate": 8677,
      "finder": 8678,
      "ĠProgram": 8679,
      "expires": 8680,
      "(\\": 8681,
      "Go": 8682,
      "KMIP": 8683,
      "MQ": 8684,
      "bol": 8685,
      "Ð°": 8686,
      "Ġinds": 8687,
      "Ġam": 8688,
      "Ġspi": 8689,
      "Ġdropout": 8690,
      "ely": 8691,
      "Ġconfirm": 8692,
      "Ġgzip": 8693,
      "Ġexcluded": 8694,
      "exact": 8695,
      "[\"_": 8696,
      "Ġresid": 8697,
      "ĠCreate": 8698,
      "acl": 8699,
      "SHA": 8700,
      "Ġ90": 8701,
      "GROUP": 8702,
      "Axis": 8703,
      "BLOCK": 8704,
      "xlim": 8705,
      "Ġptr": 8706,
      "locs": 8707,
      "Ġmv": 8708,
      "Ġmil": 8709,
      "ĠAl": 8710,
      "starting": 8711,
      "RECT": 8712,
      "summ": 8713,
      "gnized": 8714,
      "ĠFLAGS": 8715,
      "Validates": 8716,
      "ĠDataset": 8717,
      "512": 8718,
      "clicked": 8719,
      "jvm": 8720,
      "atern": 8721,
      "tier": 8722,
      "Ġol": 8723,
      "ctrl": 8724,
      "vertical": 8725,
      "Release": 8726,
      "aligned": 8727,
      "small": 8728,
      "tolerance": 8729,
      "%(": 8730,
      "06": 8731,
      "Right": 8732,
      "imag": 8733,
      "salt": 8734,
      "recent": 8735,
      "):]": 8736,
      "kew": 8737,
      "Ġys": 8738,
      "answer": 8739,
      "Conver": 8740,
      "Comb": 8741,
      "LEN": 8742,
      "DEX": 8743,
      "Ġneg": 8744,
      "Ġhandling": 8745,
      "sures": 8746,
      "Ġupd": 8747,
      "ĠContext": 8748,
      "Ġcountry": 8749,
      "yperedge": 8750,
      "GHT": 8751,
      "IR": 8752,
      "Pay": 8753,
      "Ġlight": 8754,
      "altern": 8755,
      "tics": 8756,
      "ĠCLI": 8757,
      "Ġprep": 8758,
      "ĠISO": 8759,
      "angular": 8760,
      "returncode": 8761,
      "Ġphysical": 8762,
      "=\".": 8763,
      "CC": 8764,
      "ĊĊĠĠĠĠĠĠĠĠĊĠĠĠĠĠĠĠĠ": 8765,
      "deserialize": 8766,
      "Ġtot": 8767,
      "Ġsx": 8768,
      "unused": 8769,
      "Ġdr": 8770,
      "ulse": 8771,
      "contrib": 8772,
      "Ġhi": 8773,
      "abi": 8774,
      "abort": 8775,
      "ĠMO": 8776,
      "Counter": 8777,
      ":`.": 8778,
      "cycles": 8779,
      "optimize": 8780,
      "spacing": 8781,
      "GIN": 8782,
      "vor": 8783,
      "Ġfalse": 8784,
      "Ġpow": 8785,
      "Ġdigit": 8786,
      "exchange": 8787,
      "foot": 8788,
      "filer": 8789,
      "Ġcompatible": 8790,
      "Ġdocker": 8791,
      "Ġsignals": 8792,
      "Collect": 8793,
      "Ġsoft": 8794,
      "scaling": 8795,
      "ĠDecimal": 8796,
      "discard": 8797,
      "={}\".": 8798,
      "CCESS": 8799,
      "NN": 8800,
      "TT": 8801,
      "bel": 8802,
      "pst": 8803,
      "Ġenter": 8804,
      "Ġancestor": 8805,
      "ĠĠĠĠĠĠĠĠĠĠ": 8806,
      "ased": 8807,
      "Debug": 8808,
      "Ġchecker": 8809,
      "Ġintersect": 8810,
      "Ġfeat": 8811,
      "padded": 8812,
      "Ġmodify": 8813,
      "ĊĠĠĠĠĠĠĠĠĠĠĠĠĠĠĠĠĠĠĠĠĠĠĠĠĠĠĠĠĠĠĠĠĠĠĠĠĠĠĠĠĠĠĠĠĠĠĠĠĠĠĠĠĠĠĠĠĠĠĠĠĠĠĠĠĠĠĠĠĠĠĠĠĠĠĠĠĠĠĠĠ": 8814,
      "COUNT": 8815,
      "\")))": 8816,
      "cube": 8817,
      "rsplit": 8818,
      "stone": 8819,
      "Ġemit": 8820,
      "utter": 8821,
      "Ġomega": 8822,
      "Ġstreams": 8823,
      "conc": 8824,
      "share": 8825,
      "ĠFil": 8826,
      "docstring": 8827,
      "Ġgenes": 8828,
      "blings": 8829,
      "probability": 8830,
      "Ġboundary": 8831,
      "Ġglobals": 8832,
      "XY": 8833,
      "zs": 8834,
      "Ð¾": 8835,
      "Ġcx": 8836,
      "ceeded": 8837,
      "Ġports": 8838,
      "heel": 8839,
      "Ġraster": 8840,
      "Init": 8841,
      "mous": 8842,
      "Ġnewnode": 8843,
      "ĠMatrix": 8844,
      "continue": 8845,
      "transforms": 8846,
      "Ġqubits": 8847,
      "Timestamp": 8848,
      "Iterable": 8849,
      "Ġcreation": 8850,
      "Ġrotate": 8851,
      "cartesian": 8852,
      "qualified": 8853,
      "DecodeError": 8854,
      "CHECK": 8855,
      "blank": 8856,
      "ech": 8857,
      "hull": 8858,
      "ĠValue": 8859,
      "represent": 8860,
      "ĠRGB": 8861,
      "Section": 8862,
      "waiting": 8863,
      "ghts": 8864,
      "Ġcompletion": 8865,
      "Translate": 8866,
      "Async": 8867,
      "Bound": 8868,
      "rations": 8869,
      "enotype": 8870,
      "Ġdead": 8871,
      "Ġcoerce": 8872,
      "Ġjav": 8873,
      "ordering": 8874,
      "Lock": 8875,
      "Ġworkers": 8876,
      "TRAN": 8877,
      "Ġrenderer": 8878,
      "Executes": 8879,
      "DOWN": 8880,
      "Override": 8881,
      "Ġdirectly": 8882,
      "ĠGraphQL": 8883,
      "TEMPLATE": 8884,
      ",**": 8885,
      "fallback": 8886,
      "water": 8887,
      "Ġpen": 8888,
      "Ġaio": 8889,
      "protein": 8890,
      "Ġjs": 8891,
      "Ġcompiled": 8892,
      "DataInstance": 8893,
      "ldap": 8894,
      "primitive": 8895,
      "Diff": 8896,
      "replic": 8897,
      "Trace": 8898,
      "OLD": 8899,
      "legend": 8900,
      "Ġvelocity": 8901,
      "ĠColumn": 8902,
      "sensus": 8903,
      "ambda": 8904,
      "Day": 8905,
      "GO": 8906,
      "TAG": 8907,
      "uids": 8908,
      "leader": 8909,
      "argmin": 8910,
      "Ġfilesystem": 8911,
      "Ġ{}).": 8912,
      "imuth": 8913,
      "beam": 8914,
      "traverse": 8915,
      "ĠVector": 8916,
      "Ġlocator": 8917,
      "SPACE": 8918,
      "Pair": 8919,
      "Partition": 8920,
      "MAC": 8921,
      "Press": 8922,
      "aws": 8923,
      "onic": 8924,
      "orn": 8925,
      "Ġcss": 8926,
      "Ġeigen": 8927,
      "Ġbond": 8928,
      "Ġtogether": 8929,
      "msgs": 8930,
      "Ġrr": 8931,
      "Exists": 8932,
      "aggregate": 8933,
      "Ġunused": 8934,
      "fromtimestamp": 8935,
      "compose": 8936,
      "ĠFunction": 8937,
      "METH": 8938,
      "deploy": 8939,
      "Ġfoundations": 8940,
      "Nodes": 8941,
      "LINK": 8942,
      "dtypes": 8943,
      "duplicates": 8944,
      "atural": 8945,
      "lave": 8946,
      "ulations": 8947,
      "elt": 8948,
      "Ġdescri": 8949,
      "Ġthresh": 8950,
      "ĠCall": 8951,
      "Ġlhs": 8952,
      "tokenize": 8953,
      "Ġinputed": 8954,
      "Registry": 8955,
      "mutations": 8956,
      "ĊĠĠĠĠĠĠĠĠĠĠĠĠĠĠĠĠĠĠĠĠĠĠĠĠĠĠĠĠĠĠĠĠĠĠĠĠĠĠĠĠĠĠĠĠĠĠĠĠĠĠĠĠĠĠĠĠĠ": 8957,
      "Constants": 8958,
      "expired": 8959,
      "notifications": 8960,
      "irtual": 8961,
      "=(),": 8962,
      "Card": 8963,
      "Lists": 8964,
      "Non": 8965,
      "Word": 8966,
      "gas": 8967,
      "ortion": 8968,
      "Ġ\"[": 8969,
      "Ġthing": 8970,
      "ĠLine": 8971,
      "ird": 8972,
      "defaultdict": 8973,
      "exponent": 8974,
      "Execution": 8975,
      "general": 8976,
      "========": 8977,
      "Received": 8978,
      "Ġdivmod": 8979,
      "SPE": 8980,
      "dap": 8981,
      "vid": 8982,
      "ĠĠĠĠĠĠĠĠĠ": 8983,
      "Ġrem": 8984,
      "Ġfront": 8985,
      "Ġctr": 8986,
      "Ġnor": 8987,
      "lapping": 8988,
      "Ġgrouped": 8989,
      "filesystem": 8990,
      "collector": 8991,
      "ipy": 8992,
      "ĠOut": 8993,
      "Ġtransformed": 8994,
      "ĠQueue": 8995,
      "auss": 8996,
      "Running": 8997,
      "tmpdir": 8998,
      "Ġcapture": 8999,
      "Cancel": 9000,
      "VM": 9001,
      "wire": 9002,
      "Ġdc": 9003,
      "sport": 9004,
      "Ġcolour": 9005,
      "undo": 9006,
      "weep": 9007,
      "LEV": 9008,
      "Ġformats": 9009,
      "TIC": 9010,
      "Ġphone": 9011,
      "Objects": 9012,
      "Applies": 9013,
      "Ġwindows": 9014,
      "NODE": 9015,
      "cleaned": 9016,
      "OrderedDict": 9017,
      "needs": 9018,
      "cipients": 9019,
      "Ġplaintext": 9020,
      "Bot": 9021,
      "Hdr": 9022,
      "Nrm": 9023,
      "ned": 9024,
      "ĊĊĉĉĊĉ": 9025,
      "attempts": 9026,
      "did": 9027,
      "colour": 9028,
      "Ġdesign": 9029,
      "requested": 9030,
      "matcher": 9031,
      "orders": 9032,
      "ACTION": 9033,
      "Ġordering": 9034,
      "Mouse": 9035,
      "ĊĠĠĠĠĠĠĠĠĊĠĠĠĠĠĠĠĠĊĠĠĠĠĠĠĠĠĊĠĠĠĠĠĠĠĠĊĠĠĠĠĠĠĠĠĊĠĠĠĠĠĠĠĠĊĠĠĠĠĠĠĠĠĊĠĠĠĠĠĠĠĠ": 9036,
      "SPON": 9037,
      "Ġpopulation": 9038,
      "Ġlam": 9039,
      "ĠDEBUG": 9040,
      "ĠSeries": 9041,
      "}:{": 9042,
      "alaxy": 9043,
      "aternion": 9044,
      "Auto": 9045,
      "RUN": 9046,
      "bc": 9047,
      "eig": 9048,
      "fork": 9049,
      "ggle": 9050,
      "mult": 9051,
      "ĊĠĠĠĠĠĠĠĠĊĊĠĠĠĠĠĠĠĠĊĠĠĠĠĠĠĠĠĊĠĠĠĠĠĠĠ": 9052,
      "Ġreload": 9053,
      "pet": 9054,
      "Ġdefine": 9055,
      "molecule": 9056,
      "issuer": 9057,
      "forecast": 9058,
      "Notification": 9059,
      "Ġintegers": 9060,
      "Ġtolerance": 9061,
      "Creating": 9062,
      "Email": 9063,
      "Fit": 9064,
      "ea": 9065,
      "osed": 9066,
      "Ġjoint": 9067,
      "Ġix": 9068,
      "Ġtup": 9069,
      "through": 9070,
      "quantity": 9071,
      "apps": 9072,
      "Ġorientation": 9073,
      "Ġstrategy": 9074,
      "ĠSchema": 9075,
      "indexed": 9076,
      "ĠCIM": 9077,
      "Ġalways": 9078,
      "ĊĉĉĊĉĉĊĉ": 9079,
      "hexlify": 9080,
      "versation": 9081,
      "Ġlikelihood": 9082,
      "allenge": 9083,
      "IBU": 9084,
      "ao": 9085,
      "tumor": 9086,
      "ylabel": 9087,
      "deep": 9088,
      "mester": 9089,
      "Ġfocus": 9090,
      "Ġmet": 9091,
      "preter": 9092,
      "ĠAST": 9093,
      "Ġjava": 9094,
      "UNI": 9095,
      "diagonal": 9096,
      "Ġrequirement": 9097,
      "dimensional": 9098,
      "Ġtranspose": 9099,
      "LABEL": 9100,
      "$\",": 9101,
      "Sec": 9102,
      "Using": 9103,
      "Usage": 9104,
      "WID": 9105,
      "ĠĠĠĠĠĠĠĠĠĠĠĠĠ": 9106,
      "Ġear": 9107,
      "lored": 9108,
      "assembly": 9109,
      "Ġsever": 9110,
      "scatter": 9111,
      "nearest": 9112,
      "spawn": 9113,
      "postprocess": 9114,
      "overwrite": 9115,
      "pubkey": 9116,
      "TextCursor": 9117,
      "lons": 9118,
      "whitespace": 9119,
      "ĠParameter": 9120,
      "ĠCloud": 9121,
      "mv": 9122,
      "uv": 9123,
      "Ðµ": 9124,
      "čĊĠĠĠĠĠĠĠĠĠĠĠĠĊĠĠĠĠĠĠĠĠĠĠĠ": 9125,
      "amel": 9126,
      "Ġbr": 9127,
      "formula": 9128,
      "Ġymin": 9129,
      "pause": 9130,
      "Ġ[]:": 9131,
      "nums": 9132,
      "Ġwhole": 9133,
      "ĠMAV": 9134,
      "ĠEX": 9135,
      "Ġqueries": 9136,
      "Events": 9137,
      "sink": 9138,
      "combined": 9139,
      "requirement": 9140,
      "Ġtornado": 9141,
      "Ġhooks": 9142,
      "peaks": 9143,
      "Ġpercentage": 9144,
      "54": 9145,
      "LD": 9146,
      "MAR": 9147,
      "Vec": 9148,
      "Ġrelevant": 9149,
      "Ġ\"&": 9150,
      "idle": 9151,
      "asyn": 9152,
      "Ġ13": 9153,
      "quick": 9154,
      "Ġneur": 9155,
      "ĠVi": 9156,
      "KET": 9157,
      "Ġvisitor": 9158,
      "attachments": 9159,
      "Single": 9160,
      "]].": 9161,
      "wf": 9162,
      "Ġreco": 9163,
      "rogram": 9164,
      "cope": 9165,
      "Ġ\"|": 9166,
      "Ġxx": 9167,
      "Ġll": 9168,
      "Ġcomparison": 9169,
      "Ġarticle": 9170,
      "LOB": 9171,
      "Ġquality": 9172,
      "Ġdisconnect": 9173,
      "softmax": 9174,
      "\"^": 9175,
      "BIN": 9176,
      "CL": 9177,
      "Evaluate": 9178,
      "PRI": 9179,
      "wind": 9180,
      "alphabet": 9181,
      "lazy": 9182,
      "elta": 9183,
      "verbosity": 9184,
      "quit": 9185,
      "vided": 9186,
      "ublas": 9187,
      "Ġmav": 9188,
      "readable": 9189,
      "())[": 9190,
      "licity": 9191,
      "Ġends": 9192,
      "1024": 9193,
      "LOAD": 9194,
      "Ġcorrelation": 9195,
      "DIS": 9196,
      "requires": 9197,
      "realpath": 9198,
      "WORK": 9199,
      "Ġjcvi": 9200,
      "Mag": 9201,
      "pan": 9202,
      "trees": 9203,
      "zier": 9204,
      "onts": 9205,
      "design": 9206,
      "met": 9207,
      "Ġcrc": 9208,
      "Ġinf": 9209,
      "Ġinline": 9210,
      "lopen": 9211,
      "asing": 9212,
      "classification": 9213,
      "ĠNO": 9214,
      "coro": 9215,
      "ĠGit": 9216,
      "Named": 9217,
      "SED": 9218,
      "Ġvertical": 9219,
      "Ġquanti": 9220,
      "associ": 9221,
      "clare": 9222,
      "secondary": 9223,
      "veloper": 9224,
      "ĠStringIO": 9225,
      "fficient": 9226,
      "68": 9227,
      "Fetches": 9228,
      "SB": 9229,
      "Zip": 9230,
      "oral": 9231,
      "Ġtun": 9232,
      "lities": 9233,
      "Ġ\"\").": 9234,
      "Ġbatches": 9235,
      "Ġufo": 9236,
      "classname": 9237,
      "ĠBin": 9238,
      "Ġobjs": 9239,
      "FileName": 9240,
      "MOD": 9241,
      "Extra": 9242,
      "Ġcumulative": 9243,
      "FD": 9244,
      "pct": 9245,
      "rw": 9246,
      "rnd": 9247,
      "Ġpys": 9248,
      "ulus": 9249,
      "xture": 9250,
      "shutit": 9251,
      "strategy": 9252,
      "perf": 9253,
      "calibr": 9254,
      "Ġbeam": 9255,
      "ĠPi": 9256,
      "minus": 9257,
      "ĠDist": 9258,
      "Ġattempt": 9259,
      "ĠNe": 9260,
      "ORI": 9261,
      "ORTED": 9262,
      "Ġworkspace": 9263,
      "similarity": 9264,
      "Ġboto": 9265,
      "Ġfrac": 9266,
      "freqs": 9267,
      "VARI": 9268,
      "Ns": 9269,
      "PTION": 9270,
      "Scale": 9271,
      "Ġurn": 9272,
      "Ġiface": 9273,
      "rich": 9274,
      "Ġresolver": 9275,
      "posure": 9276,
      "mitives": 9277,
      "Ġauthorization": 9278,
      "overrides": 9279,
      "Ġprefixes": 9280,
      "udy": 9281,
      "Ġcleaned": 9282,
      "ĠDeprecationWarning": 9283,
      "SubElement": 9284,
      "pressure": 9285,
      "Controller": 9286,
      "FR": 9287,
      "cand": 9288,
      "gpu": 9289,
      "iface": 9290,
      "qm": 9291,
      "celer": 9292,
      "Ġpx": 9293,
      "Ġgr": 9294,
      "Ġthree": 9295,
      "life": 9296,
      "physical": 9297,
      "translations": 9298,
      "COMP": 9299,
      "UTF": 9300,
      "identifiers": 9301,
      "sistency": 9302,
      "Ġlaunch": 9303,
      "Price": 9304,
      "stems": 9305,
      "Ġcoefficient": 9306,
      "ĠPOST": 9307,
      "Full": 9308,
[...]
